[PAD]
the
,
a
and
of
.
to
's
is
that
in
it
as
with
an
film
its
for
movie
this
you
but
be
on
n't
by
more
--
one
at
than
not
has
about
his
from
are
like
``
so
or
all
have
most
story
'
good
...
into
out
too
who
)
up
characters
i
funny
(
no
comedy
if
just
does
much
what
can
even
`
your
their
will
time
some
bad
little
very
way
which
best
any
love
been
life
make
work
enough
there
only
he
makes
us
new
movies
never
something
do
they
humor
through
was
well
action
great
would
own
made
director
we
many
really
performances
plot
drama
her
how
could
films
sense
see
such
better
other
fun
audience
people
off
every
two
without
cast
nothing
feel
both
when
being
look
character
may
should
entertaining
acting
ever
real
often
performance
them
long
:
while
still
world
because
script
also
interesting
another
heart
kind
're
those
hollywood
dialogue
minutes
watch
first
screen
down
few
get
big
over
far
thriller
might
hard
less
human
moments
actors
tale
compelling
romantic
had
rather
cinema
year
family
almost
material
end
watching
seen
-
worth
've
seem
itself
picture
original
take
my
before
were
seems
documentary
emotional
after
our
quite
find
old
these
visual
comes
man
things
back
fascinating
moving
sweet
right
works
between
feels
here
scenes
full
come
piece
direction
yet
care
;
music
go
me
dull
going
takes
years
special
ultimately
young
ca
keep
making
anything
laughs
'll
american
times
why
worst
smart
give
experience
comic
enjoyable
least
lot
cinematic
part
where
beautiful
entertainment
history
style
sometimes
though
thing
art
clever
kids
away
gives
again
him
together
she
bit
intelligence
dark
idea
gets
amusing
theater
engaging
same
powerful
women
once
star
genre
intelligent
energy
subject
did
charming
surprisingly
actually
summer
anyone
want
screenplay
charm
point
filmmaking
place
short
solid
narrative
pretty
flick
around
feeling
nearly
feature
silly
simply
whose
strong
manages
face
predictable
war
think
truly
enjoy
wit
offers
show
say
know
goes
perfect
deeply
then
satisfying
power
fans
need
whole
always
effort
becomes
done
spirit
fresh
trying
true
beautifully
premise
three
since
half
quirky
?
filmmakers
suspense
tone
portrait
dramatic
hilarious
under
last
horror
fine
interest
effects
flat
rare
high
series
rich
probably
hours
children
everyone
romance
ideas
touching
looking
familiar
modern
study
remarkable
especially
imagination
'd
pleasure
wonderful
classic
boring
small
everything
easy
set
leave
exercise
level
title
instead
stuff
honest
past
culture
dumb
intriguing
tv
wo
light
video
filmmaker
already
turn
actor
audiences
sad
storytelling
matter
lack
stories
recent
mind
obvious
put
written
despite
talent
french
project
ending
images
memorable
visually
terrific
serious
woman
completely
adventure
become
opera
likely
camera
beauty
gentle
talented
looks
mess
emotionally
fails
day
slow
ride
sure
head
himself
having
reason
cold
cliches
left
inside
directed
beyond
gorgeous
jokes
mr.
men
bland
proves
melodrama
shot
low
ways
impossible
run
easily
above
hour
stupid
thoughtful
must
simple
excellent
contrived
eyes
different
debut
else
complex
tired
ugly
de
otherwise
fairly
viewer
lacks
each
believe
shows
sort
viewers
brilliant
comedies
passion
warmth
black
writing
particularly
attempt
turns
certainly
play
wrong
violence
welcome
lost
social
formula
cheap
themselves
soap
genuine
book
role
either
personal
plays
crime
animation
sequences
thoroughly
delightful
!
line
hero
version
sex
historical
barely
impressive
home
fact
seeing
nor
appealing
along
quality
gags
got
change
worse
clichés
found
middle
lives
adults
surprising
old-fashioned
next
death
girl
running
message
ambitious
engrossing
important
creative
fantasy
now
live
able
worthy
pretentious
sequel
psychological
decent
'm
nice
warm
ends
imagine
tragedy
michael
none
entirely
perfectly
act
waste
creepy
deep
remains
sit
rock
job
concept
pictures
laugh
journey
unfunny
unsettling
inventive
winning
try
vision
cool
usual
painful
insight
john
attention
unique
convincing
bring
neither
moral
mystery
satire
stylish
against
side
master
success
nature
leaves
knows
thin
believable
artist
elements
awful
lacking
lead
seat
reality
tedious
working
mood
shallow
period
moment
view
falls
appeal
considerable
situations
epic
provocative
days
political
create
sentimental
road
scene
sensitive
cinematography
watchable
endearing
hackneyed
finally
getting
parents
highly
greatest
colorful
earnest
help
uses
difficult
loud
game
production
call
understand
amount
dry
pace
spy
utterly
delivers
witty
second
possible
hold
future
stand
mostly
sharp
relationships
adaptation
themes
scary
flaws
throughout
odd
depth
emotions
keeps
skill
masterpiece
sci-fi
cliché
during
several
given
gone
successful
edge
touch
tries
poorly
sustain
four
animated
examination
drag
coming-of-age
use
promise
pointless
mindless
tell
hit
episode
disney
flicks
major
form
whether
score
magic
pieces
surprise
definitely
execution
unexpected
subtle
captures
twists
grand
complete
poor
ones
pure
intense
ensemble
deserves
spielberg
across
boy
problem
straight
memory
actress
somewhat
oscar
intimate
pacing
depressing
york
told
career
forced
couple
thinking
ability
approach
lovely
exciting
surprises
intrigue
thought
offer
starts
manner
taste
tension
delicate
tragic
recommend
goofy
final
grace
brings
sexy
affection
mediocre
words
someone
female
eye
slightly
contemporary
sets
occasionally
tribute
humanity
overcome
heartfelt
hand
air
today
cultural
purpose
fully
strange
allows
core
evil
twisted
plenty
equally
pleasant
generic
remake
uneven
nicely
stale
manipulative
worthwhile
felt
case
money
events
wild
telling
frame
failure
monster
weird
striking
sophisticated
vivid
painfully
playful
funnier
room
car
doing
needs
huge
offensive
terrible
storyline
delight
crafted
let
single
living
playing
coming
mean
clear
urban
soul
thanks
motion
poetry
expect
remarkably
supposed
sounds
acted
ultimate
casting
clarity
inspiring
devoid
insightful
among
class
justice
forget
rarely
imaginative
company
issues
exactly
wants
quiet
clearly
energetic
sandler
party
close
toward
dead
smile
runs
figure
situation
dog
respect
spiritual
wildly
strangely
genuinely
chilling
refreshing
funniest
school
called
night
country
festival
step
minor
product
empty
guys
extraordinary
realism
sincere
sloppy
tiresome
taking
cut
sitting
truth
share
apart
crowd
yourself
mix
chemistry
treat
teen
viewing
meditation
wasted
writer-director
alone
ago
begins
politics
effective
ridiculous
gripping
annoying
originality
wonderfully
ms.
name
entire
problems
value
dream
questions
brain
target
universal
ages
add
wise
cute
superficial
ii
fire
loss
chance
twice
90
sexual
interested
sick
plain
merely
conclusion
excitement
fare
derivative
lame
10
taken
created
america
impact
liked
kid
extremely
latest
detailed
absolutely
steven
shots
puts
unnecessary
succeeds
flawed
first-rate
slapstick
well-made
amateurish
british
battle
start
robert
natural
except
hardly
lots
attraction
triumph
suffers
popcorn
sappy
served
usually
mark
previous
date
places
read
typical
joy
horrible
spectacle
frustrating
heartwarming
meandering
city
novel
hope
treatment
alive
opportunity
attempts
seriously
credits
disaster
chan
performers
incredibly
mesmerizing
dreary
downright
b
used
top
behind
rest
certain
girls
stars
overall
holds
frequently
indie
realistic
suspenseful
refreshingly
forgettable
brown
provides
grant
wish
trip
credit
allen
weak
balance
guilty
delivery
elegant
stunning
oddly
absorbing
yarn
riveting
inept
until
person
process
waiting
pop
avoid
doubt
finds
franchise
conventional
reveals
shame
conviction
superb
visuals
dazzling
based
2002
david
guy
please
trouble
amazing
badly
editing
poetic
lazy
crisp
thrills
2
including
college
although
maybe
commercial
wonder
identity
hate
leads
subjects
false
achievement
complicated
damned
bullock
number
match
skin
escape
bright
fashion
behavior
dreams
bore
creates
routine
substance
fears
exquisite
comedic
sequels
ludicrous
listless
undeniably
admirable
means
favor
murphy
talents
nasty
pathetic
lousy
cleverly
rip-off
thought-provoking
water
various
win
quickly
standard
writer
cause
pay
zone
fiction
inspired
totally
mainstream
excuse
glory
grief
sheer
bizarre
poignant
sentimentality
age
voice
central
business
deal
hell
die
happy
sides
damage
starring
faith
gay
superior
holes
tender
philosophical
promising
authentic
repetitive
evocative
cheesy
members
front
sound
fall
heavy
remember
reach
color
beneath
largely
sequence
aspects
forgotten
friendship
revealing
glimpse
theaters
gifted
humorous
creativity
devastating
subtlety
charisma
general
five
others
blue
points
word
designed
fast
filled
frank
intended
directors
involving
raw
perspective
deserve
cruel
unpleasant
haunting
flair
gross-out
delightfully
songs
stay
studio
particular
growing
sign
levels
stock
fit
document
laughter
intensity
accomplished
virtually
endless
spark
confusing
exhilarating
retread
force
george
provide
lines
generally
jackson
murder
possibly
theme
acts
finding
budget
quietly
happens
artificial
exploration
observations
challenging
modest
consistently
utter
vibrant
rhythms
entertain
stereotypes
feel-good
formulaic
cliched
house
group
structure
pull
happen
decades
offering
soundtrack
rhythm
bears
affair
apparent
essentially
accessible
fatal
noir
marvelous
farce
imax
&
television
upon
industry
break
potential
sight
missing
crazy
hip
favorite
slight
belly
sum
deliver
joke
fake
lets
bored
persona
unconvincing
buoyant
delights
obnoxious
x
south
main
saw
red
further
addition
washington
spent
vehicle
chase
mention
enjoyed
extreme
answers
loses
clumsy
timely
hugely
irritating
flashy
masterful
low-budget
niro
rewarding
season
body
community
beginning
older
computer
talking
wait
era
mixed
necessary
tells
struggle
heaven
gradually
carries
logic
hearts
bother
attractive
frustration
deadly
sitcom
disappointing
plotting
astonishing
empathy
achieves
self-conscious
visceral
eloquent
unimaginative
king
wife
green
move
sea
lived
onto
source
relationship
terms
expected
pair
represents
laughing
marks
violent
crap
wholly
slice
hoffman
mildly
unpredictable
directorial
mayhem
moviegoers
undeniable
wannabe
uplifting
incoherent
unfocused
however
large
20
development
save
christmas
setting
supporting
adult
standards
wedding
saturday
outstanding
bond
fan
poem
holiday
fat
tear
cartoon
resist
affecting
crude
absurd
gangster
games
office
list
boys
weight
reading
roll
somehow
stuck
emotion
tough
amounts
assured
precious
mature
fantastic
sympathy
lyrical
sensual
smarter
pleasures
vulgar
turned
mother
brought
length
lady
walk
machine
price
tears
content
conflict
pale
realize
edited
shoot
personality
pat
atmosphere
courage
crush
trademark
passionate
endure
wry
$
service
yes
stage
average
collection
pain
digital
realized
positive
guns
check
missed
hits
pack
lawrence
killer
dirty
detail
sink
potentially
rendered
teenagers
sour
hopeful
intricate
splendid
endeavor
late
eventually
food
japanese
brothers
constructed
strength
adam
somewhere
wars
blade
filmed
ordinary
spirits
bunch
biting
portrayal
gem
charismatic
said
street
present
god
example
involved
surface
results
effect
fear
territory
loved
damn
americans
dvd
grow
combination
sell
willing
instantly
simultaneously
pulls
mixture
footage
cult
proceedings
minds
strain
essence
enthusiasm
blend
touches
profound
lush
frightening
emerges
richer
9
band
soon
return
release
friend
peter
fight
leaving
sports
queen
artists
whatever
knowledge
notice
capture
rush
faster
deeper
bold
commentary
honestly
exceptional
dignity
daring
compassion
meaningful
team
white
space
child
indian
channel
williams
bottom
quick
determined
drawn
ryan
condition
details
kevin
string
capable
changing
values
moore
measure
unusual
increasingly
fate
bite
desperate
presents
nowhere
predecessor
awkward
twist
nightmare
odds
timing
wears
magnificent
spectacular
sadly
paced
overly
stirring
insights
smug
sweetly
sane
sweetness
immensely
pic
adventurous
james
ground
week
needed
friends
type
features
question
whom
carried
losing
animal
knowing
rank
literary
understanding
broad
delivered
committed
movements
comfortable
grab
demands
inspiration
bitter
magical
vital
dish
wow
protagonist
patience
polished
early
public
third
hands
hair
science
longer
italian
martin
pass
relief
relatively
tiny
strike
asks
friday
prove
artistic
happening
convinced
nomination
unfortunately
bigger
grows
burns
confident
faithful
amused
sadness
sympathetic
homage
monty
startling
credible
state
award
degree
key
musical
winner
appear
broken
presence
teacher
finish
fair
serves
roles
creating
snow
apparently
signs
seek
witch
ticket
celebration
loves
happiness
finale
forgive
lesson
screenwriter
innocence
despair
disguise
exploitation
ambition
sparkling
honesty
pleasing
worked
event
developed
walked
report
lee
appears
note
ahead
seconds
technical
buy
concerned
shooting
giant
biggest
sand
belt
suffering
trick
merit
impression
treasure
cop
strikes
fights
tortured
folks
inevitable
imagery
skip
slap
structured
enthusiastic
hastily
depiction
relies
shocking
thrill
guessing
scenery
metaphor
recycled
brutally
charms
outrageous
cynical
total
giving
male
drive
miss
tom
variety
fighting
presented
vampire
alternative
accept
racial
manage
executed
nevertheless
comfort
references
messages
mysterious
feat
testament
urge
desperately
staged
abandon
intentions
juvenile
delicious
delivering
convenient
communal
lingering
reasonably
terribly
potent
terrifying
lively
niche
wilde
admire
lifeless
chilly
spirited
irresistible
verve
national
came
international
son
park
free
stop
heard
forces
below
limited
secret
visit
powers
display
desire
constant
warning
describe
psychology
adventures
breaks
pile
sake
spite
theatrical
dubbed
rises
integrity
shelf
brutal
villain
ode
played
looked
produced
police
mouth
result
private
hot
earth
traditional
significant
chris
turning
younger
basic
remain
connection
jason
rising
touched
roger
gently
locations
landscape
spell
proud
helps
revenge
belongs
wallace
occasional
graphic
blast
halfway
spare
appreciate
rent
demanding
unlikely
directing
draws
overwhelming
trash
suck
scratch
exotic
sweeping
embarrassment
plots
coherent
chaotic
straightforward
alternately
plotted
somber
open
due
near
control
society
course
considered
professional
blood
race
paper
box
jones
safe
extended
nation
evening
buried
unlike
tradition
wooden
flow
indeed
factor
discovery
childhood
equivalent
wanting
drugs
dying
dogs
screaming
handled
disappointed
choices
suited
tricks
motivated
inherent
thumbs
analyze
slack
imitation
diversion
showtime
eastwood
richly
area
held
within
started
using
language
chinese
players
required
greek
window
perhaps
beach
follow
fish
jim
capacity
pick
efforts
path
afraid
engaged
consider
sees
experiences
wondering
substantial
relevant
handsome
quest
cheese
fierce
martha
maintains
candy
attract
politically
expense
throws
generous
emerge
personalities
woody
vague
peculiar
sentiment
junk
rewards
ambiguous
behold
inspirational
delicately
uncanny
won
went
father
knew
english
term
morning
myself
technology
slowly
marriage
mainly
serve
beat
generation
stomach
revolution
keeping
enter
bringing
returns
devices
photography
fill
rushed
videos
ranks
scream
slip
destination
iranian
intellectual
mere
topic
engage
explore
layers
trailer
makers
complexity
possibilities
verbal
stays
rude
garbage
tremendous
misery
fuzzy
inspire
understands
actresses
intimacy
fantasies
finely
thematic
subtly
released
station
talk
arts
jack
cover
weeks
distance
famous
choice
wind
daily
text
paid
begin
bag
singing
stands
aside
shaped
distinguished
hoping
proper
loose
context
parker
dealing
firing
attitude
secrets
convince
distinctive
lopez
packed
regret
succeed
elaborate
mild
embarrassed
encouraging
holocaust
dramatically
breakthrough
complications
refusal
unexpectedly
awe
reminds
portrays
problematic
disgusting
celebrates
unbelievable
sincerity
/
following
century
movement
replaced
ask
camp
kiss
responsible
trees
count
seats
kong
harry
eat
web
planet
actual
drawing
dancing
existed
shake
exit
burn
ignored
mistake
surely
fisher
hybrid
nerve
eager
chances
excess
lovers
kicking
hopkins
altogether
technically
invention
scenario
exposition
reminiscent
desperation
loads
neat
instincts
newcomer
satirical
expectation
pathology
respectable
adolescent
redundant
insulting
accents
settles
timeless
shocks
record
paul
popular
husband
highest
meaning
creation
hunter
titles
existence
noise
concern
confused
obviously
severe
copy
similarly
bloody
random
midnight
historically
dismissed
martial
scattered
enormous
aims
souls
notion
shining
adds
crucial
finest
ballot
blair
useless
pity
unusually
insult
curiously
enduring
ghetto
gangs
graceful
jolt
hallmark
ponder
freaks
former
song
moved
design
seven
similar
continues
providing
critics
learn
domestic
dragon
spend
eddie
rating
easier
blind
thinks
enterprise
noble
saving
trapped
divine
comparison
observation
presentation
accurate
fluid
pianist
handful
necessarily
teenage
miracle
clue
jackie
sketch
stretches
marginal
flavor
denial
inviting
woo
resonance
vanity
heroine
dickens
protagonists
pow
blockbuster
brooding
built
outside
current
added
academy
kill
caught
allow
primarily
account
combined
surrounding
hong
wave
figures
drop
conservative
dangerous
translation
calm
sudden
poverty
ghost
broadway
vincent
creature
remote
hugh
recovery
radical
manufactured
absolute
frozen
blank
innovative
construct
classics
anybody
remembering
swallow
curiosity
fancy
evelyn
equilibrium
scripts
cares
lump
morality
competent
recipe
kung
enjoyment
inhabit
empowerment
collapses
obligatory
elegance
morally
britney
known
30
land
common
cross
bill
breath
recording
larger
irish
store
travel
numbers
sleep
charge
notable
spot
rise
thick
classical
catch
pulling
wet
equal
musicians
letting
memories
element
moves
reign
reputation
seeking
appropriate
effectively
winds
ease
lighting
impressed
filling
somebody
harsh
bits
ruined
evident
stiff
dawson
madonna
freeman
caring
willis
esther
sensitivity
reel
villains
wonders
redemption
ironic
drown
inconsistent
loneliness
doses
expressive
pantheon
psyche
stunts
boredom
album
wanted
table
families
ice
becoming
piano
concert
santa
difference
express
howard
wrapped
shock
bound
busy
bone
immediate
admit
spin
crimes
jennifer
101
properly
demons
naturally
shanghai
carol
torture
steal
scope
darker
blown
static
expectations
heal
catches
phones
toilet
ache
parody
aging
fragile
vintage
slick
positively
moody
nonsense
longing
flashes
fits
textbook
demonstrates
exceptionally
fills
sly
eerie
impressions
credibility
emptiness
stylistic
bracing
wide
raised
market
higher
happened
test
cost
cell
mile
status
authority
speak
growth
teeth
pointed
clothes
quarter
carry
format
nose
remembered
lie
korean
hole
anger
advantage
thousands
sisters
massive
fallen
choose
ethnic
meat
blow
susan
profile
contribution
pit
beast
abuse
struggled
load
hitting
heroes
filming
organic
arnold
ideal
aspect
objective
failing
dare
lessons
characteristic
loving
punch
uncomfortable
hollow
holly
seemingly
uncertain
momentum
lust
swinging
capturing
lightweight
balanced
pays
lifts
erotic
stunt
justify
concession
convey
exaggerated
costly
splash
kinda
treats
irony
pokemon
hack
layered
meaningless
illuminating
contradictory
fable
idiots
holm
insistent
1
later
building
15
brother
france
news
christian
parts
chest
upper
contains
corner
spring
closer
separate
ring
latter
image
search
bodies
background
reviews
criminal
showing
tomorrow
wear
bruce
matters
victims
sugar
cable
nobody
recommended
ralph
innocent
arrive
scores
survival
torn
consciousness
believing
determination
ellen
monsters
beings
insane
generate
ourselves
incredible
disappointment
rely
purely
tends
foul
tones
recommendation
chord
simone
obscure
documentaries
glaring
predecessors
surreal
awkwardly
proportions
generates
improvised
entertained
paints
directs
humane
sinks
unconventional
kaufman
dentist
thrilling
kwan
horribly
shrill
opaque
million
department
tour
china
includes
bridge
independent
secretary
defeated
bar
sorry
changes
mike
focus
greater
expression
featuring
prison
produce
website
speaking
animals
critical
taylor
drug
brand
atlantic
heads
category
pool
jordan
raise
cry
insurance
alabama
circumstances
cutting
exact
expert
distant
confidence
valuable
ties
solutions
blame
measured
improvement
parade
explosion
significance
constantly
curious
fail
sacrifice
exterior
eventual
accent
conspiracy
casual
refuses
suits
tap
pie
revelation
qualities
precision
assassin
feathers
rental
resemble
combines
glorious
texture
barney
photographed
builds
disguised
simplicity
eccentric
glossy
scratching
bleak
dreadful
plight
indifference
avoids
darkly
paranoia
upbeat
amazingly
gave
am
tried
russian
base
richard
saying
foreign
sun
producer
glass
goals
trust
junior
hundred
lies
scott
projects
20th
shoulders
episodes
tight
grey
davis
surprised
lane
winners
fly
putting
anderson
closing
ears
promised
harvard
jerry
nicholas
shadows
aimed
pants
evans
brooklyn
deaths
controversy
styles
tool
manhattan
alien
opens
diverse
emphasis
liberation
fix
arc
innovation
professionals
consequences
sucked
refugees
gravity
tense
desired
clinic
er
costume
gifts
heated
comedian
abstract
populated
promises
screening
fathers
guaranteed
conventions
notorious
limitations
scare
sandra
dose
foolish
teens
spears
brightly
halloween
jumps
turf
chuckle
wallet
drunken
slightest
dramas
sundance
baggage
transforms
boasts
uncomfortably
radiant
casts
palma
disregard
decidedly
sublime
brilliance
juicy
yearning
system
eight
leading
japan
awards
student
access
failed
directly
prime
steve
asian
boat
follows
focused
reduced
etc
pilot
korea
extra
environmental
develop
angry
hey
unless
neighborhood
hoped
mental
wins
wake
rolling
improve
affected
medium
lit
zero
birthday
rejected
gang
suggests
strongly
celebrated
dozen
victim
recognize
participants
throwing
thrown
venture
punk
traditions
discover
heights
3d
cage
legacy
encounter
loaded
lesser
argentine
dynamic
suffer
appeals
deals
senses
con
triangle
strictly
strongest
demonstrate
acclaim
remind
deserved
specimen
acceptable
aliens
saga
import
scenic
ego
whale
continuity
pushes
procession
limp
uneasy
bourne
clown
assurance
cho
sinister
undoubtedly
obsession
cerebral
punching
remotely
stylized
yiddish
judd
intensely
gel
smack
penetrating
irrelevant
losers
improvisation
immature
profoundly
forceful
r
took
center
field
100
program
henry
medical
allowed
opening
roman
dance
helped
empire
hurt
physical
composed
jewish
host
picked
notes
basis
guess
traffic
wearing
ocean
coffee
laughed
wilson
entry
thousand
send
peak
attempted
anthony
listen
contest
dressed
inner
faces
normally
maintain
decade
composition
gift
patient
relative
grin
kick
achieve
lunch
warriors
pitch
pride
borders
gear
warrior
bow
segment
frequent
whenever
excited
substitute
surrender
gross
struggling
shakespeare
trap
practically
warfare
barrel
maintaining
cultures
fairy
joel
assembled
realizing
strict
lifestyle
pretend
wisdom
ai
wishing
sleeve
roberto
narrator
supernatural
alike
genres
loosely
dong
compromise
detached
collision
ingredients
rouge
sack
drowned
randall
vein
tensions
collectively
miserable
adrenaline
explores
smash
arbitrary
intentionally
definitive
manipulation
nicholson
cylinders
hewitt
harmless
caine
convictions
hartley
favors
monstrous
inclination
bard
aggressively
intellect
breadth
undone
effortlessly
club
order
support
european
towards
lord
stone
hear
silver
immediately
individual
gun
hotel
remaining
emperor
headed
daniel
1958
drew
freedom
humans
duty
philosophy
suit
51
mexican
cat
circuit
hidden
vietnam
universe
driven
christopher
smooth
benefit
roots
stick
successor
lifetime
longest
leon
suggest
literally
luck
abroad
elsewhere
angels
tales
craft
athletes
trace
underneath
theories
consistent
relaxed
swear
crack
transformed
transformation
legendary
enjoying
brave
duration
prefer
molly
swim
spike
toss
reliable
canvas
precisely
squeeze
stealing
grim
gasp
accurately
jealousy
rewarded
unlimited
lola
schneider
awakening
undead
mira
peek
conspicuous
sucks
freddy
ramsay
willingness
emphasizes
uniquely
reefs
weaknesses
melancholy
ripe
storylines
characterization
dustin
mundane
generosity
lunatic
showcases
goo
restroom
hypnotic
flashbacks
j
o
11
german
established
reached
followed
killed
range
performed
ship
lips
ended
mountain
chicago
ready
starting
managed
names
answer
grew
fellow
soldiers
golden
grade
revealed
sources
chosen
thirty
reaching
worry
ian
introduction
painted
bands
guide
resistance
derived
improved
crisis
lucky
rescue
throw
lock
robin
gender
colors
conduct
bible
arrest
searching
bonus
amy
colored
submarine
stuart
suitable
spaces
swept
yesterday
diesel
fool
journalism
fury
fabric
marvel
arrives
chaos
praise
fewer
speaks
bride
discipline
vietnamese
sounding
gibson
alert
admission
witnessed
prospect
feast
embrace
beats
bullets
nash
seeks
rotten
buttons
knockout
mel
masses
adequate
seas
par
dude
isolation
icon
transparent
showcase
fulfill
embraced
endurance
chick
manners
reminder
depressed
distraction
maze
enjoys
skies
vain
crossover
hates
bravery
coma
grounded
racist
echoes
spotlight
recycling
urine
starving
fabulous
backstage
humming
hopeless
craven
spirituality
relentless
revelations
youthful
fearless
lavish
insults
littered
reacting
illustrates
notwithstanding
enigma
lodging
praises
palette
paxton
brisk
anatomical
gracefully
baffled
scares
t
town
received
13
research
hall
months
floor
bank
hill
phone
van
legal
heat
duke
elizabeth
compared
analysis
shared
perform
carrying
darkness
negative
afternoon
teachers
folk
jake
push
experienced
formal
productions
mad
begun
distinct
forth
makeup
adding
comics
leather
adams
debate
significantly
technique
robinson
mechanical
sentence
barry
shower
sessions
rival
layer
essential
rocky
sara
terror
package
experiment
rings
cuts
carved
expecting
pulse
interaction
suspect
smiles
anime
displays
canon
lonely
outcome
dimension
dozens
cia
trek
curves
grasp
errors
distinguish
pollution
lanes
dynamics
maternal
genius
placement
clause
dana
reluctant
chateau
complaint
screens
midway
appreciated
strangers
incorporates
atmospheric
symbolic
schmidt
fade
raises
clad
bucks
relate
piercing
pedestrian
disturbing
mysteries
legged
sticky
inappropriate
burger
infectious
conceptual
portray
sober
deception
spontaneous
spice
exploit
jagged
fascination
ritchie
creations
examines
strengths
heightened
chew
anguish
jolly
majestic
nair
merits
aspirations
dubious
ordeal
tempting
adequately
antonia
crippled
procedural
overrun
juliette
vastly
consolation
noticeably
urgently
evade
highs
nostalgia
fluffy
flawless
sorority
grotesque
extravagant
weep
member
named
opened
education
feet
region
1999
square
eastern
40
numerous
super
ball
stepped
ben
build
recognized
split
agent
painting
reasons
passing
covers
falling
dean
soccer
angel
metropolitan
downtown
institution
passes
waters
require
damaged
harris
austin
nelson
instance
possibility
cooper
depression
wound
experimental
merchant
dust
86
steady
stroke
traditionally
stretched
radar
witness
regardless
interpretation
interviews
earn
directions
guilt
hopes
vulnerable
pitched
sin
biography
span
mercy
reserved
darling
shifting
lobby
mechanics
arguments
deliberately
achievements
orlando
sealed
atop
shapes
achieving
walsh
exploring
ups
acute
encounters
conversations
chasing
madness
applies
sting
shine
buzz
sticks
tug
downward
brains
climax
accomplish
explode
smirk
pulp
destined
conquer
bump
fest
sway
rhetoric
sermon
guts
retaliation
hitchcock
cardboard
surfing
cleaner
optimistic
slippery
hampered
brushes
worthless
spins
bile
unbearable
sleeper
weave
fontaine
comprehension
proficient
antics
ambiguity
moods
ticking
born
river
william
western
information
southern
post
formed
attack
fourth
competition
awarded
forest
baby
minute
wood
dad
crew
pushed
driver
learning
refused
unknown
killing
shape
interview
claim
eric
uncle
pressed
ear
staring
dinner
reaction
miller
writers
specifically
tank
mill
attached
aware
burning
hide
amateur
saved
visible
operates
flesh
survive
flash
waves
novels
meets
welsh
alfred
considering
stronger
limits
neil
departure
reminded
lucy
dual
releases
root
collective
reveal
qualify
sweat
regard
collapse
uh
hitler
efficient
brush
aids
loyal
involve
chelsea
rap
bang
yu
tactics
butt
bolt
intact
possess
propaganda
wicked
introducing
carpenter
swan
testimony
marching
carmen
anticipated
wesley
dive
troubled
struggles
develops
speculation
prose
donovan
twisting
titular
abundant
payne
strokes
librarian
substances
dover
tolerance
wan
betrayal
kicks
cannes
heroic
masculine
offerings
hardened
deliberate
noticing
obstacles
weaving
monumental
frantic
chiefly
neatly
kindness
helm
prevents
fiercely
cheaper
gasping
diplomacy
translate
wander
diaries
odyssey
drains
scarcely
traveler
freshly
naughty
questionable
inevitably
experimentation
cinderella
dilemma
abyss
misses
outsiders
cheated
burr
horrors
satisfactory
forcefully
dough
choreographed
lark
routines
collateral
plainly
expects
improves
passions
nonstop
shaggy
restrictive
quivering
speedy
outing
rattling
sucker
uniformly
pleasantly
blah
stupidity
whimper
extremes
#
6
8
west
player
australia
california
chief
thomas
herself
media
section
captain
stopped
prior
youth
associated
champion
represented
basketball
horse
electric
kitchen
1970s
unable
scale
combat
allowing
sport
supply
stephen
shop
lose
lewis
succeeded
lights
convention
squad
task
brief
anne
aged
ford
receiving
sub
pink
influenced
successfully
morgan
carefully
stream
danger
salt
tea
determine
ill
daughters
seattle
assault
schedule
definition
criticism
oliver
denied
indians
partly
na
ninth
spider
viewed
roberts
21st
companion
argue
connect
phrase
sits
shorter
fellowship
healthy
enters
repeatedly
spine
ignore
dragons
survivors
mtv
blanket
bowling
hurry
hint
allegedly
witnesses
smoking
bonds
savage
cuban
nonetheless
diary
stark
lasting
edit
underlying
hostile
accepting
mentally
myth
pizza
lengths
elephant
primitive
distracted
depths
logical
ought
riot
expressions
hopefully
examine
tendency
borrowed
hawaiian
dedication
confined
lengthy
aesthetic
sexually
disgust
ethical
conception
suspects
satisfy
discovering
barrels
expressing
tissues
violently
beacon
counterparts
retains
apparatus
tapping
subordinate
perfection
resembling
jonah
incarnation
tuned
reminding
assumes
denying
eyelids
behave
forgiveness
pill
woven
bankrupt
deepest
literal
efficiently
liberties
wasting
whatsoever
tolerate
solemn
novak
fused
paranoid
recognizable
kinetic
establishes
vibe
narration
crocodile
cheat
sprung
schumacher
comprehend
jerking
unnoticed
pairing
shadowy
grind
ritter
seduce
repetition
chaplin
embracing
brutality
fabricated
engages
forgiven
flatly
owes
sporadic
relic
condensed
spiked
screenings
pinnacle
chuckles
courageous
prism
immersed
fragmented
mendes
freighter
seriousness
upscale
arresting
flaw
3
don
church
door
law
include
2000
arms
areas
says
pulled
decided
charles
books
press
theatre
african
mine
1984
edition
practice
issue
neck
theory
flight
edward
serving
direct
creek
code
gaze
walls
earned
volume
honor
environment
ray
anyway
heritage
receive
circle
actions
clean
bear
plus
climate
studios
wrestling
turkey
importance
walker
invasion
charged
goods
matthew
threatened
parking
alice
purposes
contrast
legend
rocks
abc
bones
anywhere
destroy
dated
stanley
sing
harder
destruction
naked
lift
proposal
losses
producers
exists
scientists
apply
argument
opportunities
stops
controversial
jet
forcing
relegated
boundaries
stretch
likes
intent
beaten
comments
dragged
evolved
hook
elevated
realm
encourage
michel
sensation
fires
preliminary
celebrity
blonde
shorts
reflection
victories
define
conflicts
fees
nails
everyday
legally
keen
baroque
destiny
precise
cops
nerves
shakes
careers
greene
shout
guarantee
damon
beloved
slim
messenger
aisle
landscapes
fashioned
employs
sneak
sonny
disabilities
continuation
bliss
dreamed
orgasm
cartoons
proving
liability
sorrow
surf
conditioning
potato
constraints
pencil
motions
pickup
innovations
deeds
robust
quentin
bollywood
evaluate
evenings
maturity
catalyst
depict
gong
impress
reliance
prejudice
vulnerability
cruelty
explosions
psycho
metropolis
creeping
homicide
messy
ironically
strains
cocktail
monsoon
preview
bubba
ballistic
crypt
flickering
balancing
furiously
reassuring
gaping
reflective
navigate
retro
sibling
seductive
puff
reinforcement
showdown
futile
expands
believer
accomplishment
cheering
inuit
enriched
taps
biased
durable
searing
jagger
sham
outdated
stitch
inherently
inexperienced
folly
provoke
serials
wryly
fuss
ferrara
fingered
friendships
united
states
east
cup
court
round
san
available
appointed
lower
passed
earlier
via
holding
speed
catholic
executive
chair
mission
foot
evidence
ancient
rate
shown
joe
80
von
israel
memorial
card
principal
suggested
tax
laid
tall
suffered
calls
swedish
streets
invited
skills
exist
jane
object
closely
sought
selection
wore
threat
demand
stores
feelings
responsibility
describes
gary
net
stages
credited
listening
differences
eating
appearing
markets
employment
print
dear
popularity
integrated
julia
injuries
principles
harbor
grave
teach
discussion
benefits
ash
phoenix
wildlife
monday
sung
minority
pearl
everywhere
knock
creatures
illness
kissing
punishment
assume
corruption
everybody
jessica
generations
rally
curse
variation
graphics
queens
landmark
glow
identification
reconstruction
stevens
portions
washed
ace
catching
array
entity
counts
wednesday
ashley
aggressive
cure
dimensions
circus
hawk
jealous
vacant
terrorism
toes
mistress
tackles
choosing
accuracy
capability
norton
mann
juice
fi
loser
proceeds
dealer
denis
mist
reflects
wherever
stamp
auditorium
dash
annoyed
tattoo
zombie
rigid
puzzle
sweetheart
readily
strained
waking
tract
fraction
highlight
ringing
pipeline
cultivation
clash
overwhelmed
sucking
corrupt
urgent
negotiate
elbows
outright
dumped
demonstrating
confront
olivier
privy
ours
vaguely
conclusions
freddie
terrorists
pony
weary
workplace
146
sci
disturbance
annals
manifesto
intro
stellar
noticeable
reno
digest
shudder
relying
autobiographical
installment
frontal
encompassing
pawn
urgency
fluent
distinctly
defiance
stalls
dismiss
evolve
sewage
enthusiasts
pains
bodily
tremble
padded
scooped
fulfilling
taut
scorpion
slapping
symbolism
devotees
mcgrath
tian
sentiments
geared
exceeds
schizophrenia
maneuvers
unmistakable
valiant
wig
vu
tame
adjective
puddle
pumpkin
craftsmen
peas
miraculous
elusive
leash
superhuman
quieter
siegel
visionary
acknowledges
confidently
stuffing
probing
chases
earthly
+
4
5
d
population
25
species
records
daughter
lake
seemed
smith
mid
decision
suddenly
louis
houses
iii
campus
latin
conditions
graduated
function
scotland
page
initial
draw
asia
scottish
challenge
titled
connected
yard
armed
learned
household
cricket
heavily
prevent
truck
poet
anymore
accident
plane
grown
incident
handle
device
philip
shadow
accused
shaking
twin
repeated
decide
ensure
bathroom
kennedy
marshall
factors
stewart
license
stare
ah
photo
resident
nights
84
versus
angle
rob
girlfriend
burst
larry
cotton
reaches
mall
extent
pregnant
boots
placing
craig
debt
forum
wang
joan
jacques
hungry
error
tier
rocket
jesse
reception
signals
margin
strings
challenges
edges
meal
veteran
magnetic
hughes
awake
handling
concepts
satisfied
hug
gaining
investigate
escort
wounds
diversity
introduce
developments
pub
exhausted
davies
recall
sharply
checking
targeted
advised
terrorist
duck
reasonable
ethics
kurt
tickets
amusement
plateau
assassination
calculated
consumed
pump
cal
paths
ladder
update
technological
anonymous
shoe
vacation
transform
coupled
surroundings
crane
agenda
guessed
noon
screams
schemes
castro
tooth
3000
visions
diane
albeit
daytime
ecological
appreciation
indication
regain
unhappy
costumes
instinct
volcano
dreaming
cuisine
enables
boost
minded
sheridan
incorporate
tunes
accepts
marquis
reduces
crawl
subjected
doubts
demise
styled
sexuality
devastated
vicious
encompasses
tangled
wanderers
socially
dolls
dread
bronx
pact
cardiac
mormon
cheer
debated
smoothly
muddy
backgrounds
worm
steals
diner
numb
demographic
stud
seeming
foremost
liar
soothing
biographical
crossroads
disastrous
expresses
interrogation
apocalypse
supermarket
irwin
mystical
lan
shu
reckless
fore
ecstasy
noteworthy
overview
satin
downhill
induce
menace
dismay
fumbled
bartlett
calculating
sabotage
dangerously
spreads
espionage
skins
ignorant
privileged
amazement
economical
haynes
relevance
griffiths
competence
pleas
turbulent
weaponry
bourgeois
ops
orchestrated
ominous
adorable
estranged
shovel
familiarity
fundamentally
grips
disdain
topical
undo
fright
proficiency
simulate
eyre
insignificant
rustic
hitch
psychotic
principals
suspend
mergers
cleavage
plunging
fantasia
discreet
compassionate
football
six
appeared
board
ten
finished
50
1993
guitar
hospital
kept
1989
self
mary
fell
fingers
native
prince
historic
1975
rules
peace
rural
continue
increase
influence
yellow
races
ed
columbia
300
protect
dedicated
captured
sons
clubs
nominated
iran
liberal
faced
1937
drink
tongue
brian
48
fame
performing
opposite
versions
crossed
centuries
abandoned
threw
flowers
struck
map
homes
structures
surrounded
items
douglas
johnny
dates
jimmy
paintings
anniversary
coal
extension
breathing
desert
notably
rachel
jonathan
afterwards
russell
kate
resolution
rapid
column
bomb
corporate
advice
jay
vampires
wayne
strip
ye
detective
94
nazi
bare
foster
milk
gap
terry
evolution
sharing
panic
83
parent
hispanic
yours
paint
portrayed
behalf
suspected
bull
therapy
110
prepare
certified
thrust
tossed
spots
pleased
arrangements
raymond
bearing
widow
topics
clients
kinds
chocolate
chicken
commanding
imagined
approaches
lean
ram
renowned
athlete
receives
releasing
emerging
heavyweight
corners
celebrate
worlds
delay
fence
separation
105
sustained
pronounced
chen
documented
healing
buddy
nationwide
cherry
rodriguez
ignoring
drives
tucked
spinning
surgeon
tenor
dante
aerial
bombs
cake
morrison
taxi
endangered
responsibilities
smallest
mothers
risks
phillip
mick
speeds
flowering
ceremonies
realizes
hal
philippe
haunted
blowing
bothered
happily
asset
sociology
corpse
sandwich
leap
generating
shoots
compatible
moonlight
operative
treating
feminine
awesome
illusion
disbelief
labeled
levy
compare
escapes
decay
saves
yelling
devotion
hostage
mistaken
pbs
sophomore
passages
strands
successes
hiatus
permits
rendering
racism
modeled
expose
grandparents
discarded
probe
germanic
unrelated
treatise
prolonged
hubert
destructive
orchard
famine
ambrose
invest
humble
fragment
arrogant
sights
predict
thankfully
desirable
enforced
patriot
compressed
gaps
stacked
stab
motives
cows
creators
namesake
warmed
scrutiny
annoyance
detailing
radioactive
barlow
analytical
hooks
gag
transporting
swings
prologue
yorker
bridget
bursts
withstand
freud
vin
restraint
wasp
windshield
lore
equals
restrained
incapable
knoxville
musicals
resentment
framing
bela
eats
rug
eileen
smoky
partisans
spectator
weighs
camouflage
straining
virtues
downfall
pained
shimmering
populace
hilary
glued
kingsley
documenting
groundbreaking
devote
descends
atrocities
composure
menacing
funky
indictment
exasperated
consciously
duplicate
pedestal
clancy
autopsy
margarita
indicative
chatter
grit
reductions
invincible
vile
hurley
crises
bender
aisles
spicy
luminous
devastation
projectile
vh1
greasy
bouquet
hazy
tequila
cleansing
addict
confronting
scrape
watered
canned
triangles
stimulating
pristine
optimism
taboo
coping
commonplace
brit
451
illustrating
courtship
faulty
ideally
futuristic
north
county
ll
league
president
island
per
wrote
al
described
canadian
author
economic
twenty
foundation
mexico
joseph
train
believed
zealand
legs
majority
plans
ordered
letter
multiple
broadcast
walking
et
gas
1957
gray
literature
gallery
guest
nick
defined
disease
dress
marked
claims
orders
labor
resulted
nuclear
chamber
chain
sword
ad
address
copies
extensive
landing
breaking
charlie
proved
regarding
journalist
tied
gain
clock
row
underground
partnership
approached
runner
participate
defensive
option
12th
singh
adapted
outer
practices
plastic
nervous
93
hop
pushing
commerce
danny
escaped
stones
ladies
birmingham
operational
greatly
staying
jacket
managing
permission
lowered
confusion
eagle
switch
lion
indoor
gathering
tables
pointing
settle
snake
closest
conversion
difficulty
framework
seal
crosses
bread
targets
venice
dollar
ok
bike
efficiency
newcastle
divorce
auto
brow
reflect
tightened
civic
approaching
equation
kills
honored
cared
byzantine
backward
cannon
napoleon
patch
retiring
brussels
mcdonald
protective
ally
tucker
marina
stripped
bout
velocity
idol
demonstration
feminist
walt
perception
swords
limbs
supposedly
snail
presenting
sterling
slender
rip
frames
interference
assumption
weakness
highlighted
curling
plague
erin
bubble
sparks
spiral
lucia
employ
sketches
begging
drill
resembles
groan
garnered
shades
invite
sticking
sands
amid
honorable
bias
victorious
myers
emergence
inferior
packages
recognizes
haul
mug
rae
impulse
unfortunate
discourse
clips
tens
definite
lick
attracting
mgm
veil
unchanged
jar
unprecedented
chooses
fiddle
spends
mounting
fireworks
reconciliation
critique
tick
undercover
serpent
ransom
hussein
conan
breathless
alterations
wherein
yielded
giggle
recalls
baked
plagued
annex
moderately
admitting
discomfort
preaching
presiding
glucose
purity
lend
streamed
sacrifices
gamble
comparisons
derive
avid
bruised
parental
abrupt
superstar
titus
backdrop
outrage
coughed
rumor
compensate
faults
italics
ambitions
keel
creep
thoughtfully
motionless
steaming
janice
sap
doomed
orbits
thud
indefinitely
aesthetics
distinguishing
prom
stature
injustice
myrtle
confessions
stench
frontman
295
perch
unacceptable
grease
artworks
primal
messing
mermaid
attach
porn
muttering
depleted
moaning
tailor
banged
goodwill
cushion
stimulate
speculative
tolkien
amp
drastic
tricky
saddam
sprawling
childish
paws
arrogance
marred
tenderness
bewildered
unaffected
thinkers
shriek
barbed
tapestry
moat
smeared
seizures
plunge
fide
suicidal
pun
excursion
lear
blackout
promenade
pornographic
accuse
dime
carnage
substantive
carpets
mojo
watery
oppressive
flop
affectionately
endeavors
adolescence
adultery
n
q
university
18
local
london
married
position
india
construction
network
provided
valley
library
primary
trade
rose
entered
manager
singer
plant
studied
highway
temple
metal
le
60
specific
mom
discovered
normal
removed
throat
cars
lieutenant
1980s
singles
jersey
contact
del
storm
max
semi
medicine
thoughts
handed
draft
cancer
sarah
rain
hills
scoring
orange
interior
princess
religion
achieved
da
narrow
pocket
cheek
portuguese
advance
hired
blues
properties
objects
95
shore
beer
chin
interests
shifted
smell
feed
carl
pages
mode
99
hundreds
israeli
shift
hanging
forming
swimming
voices
66
limit
treated
contributions
divisions
laboratory
rough
gods
franklin
sean
shoes
13th
strategic
hated
hiding
dollars
influential
triple
dawn
luis
nba
exception
89
hence
aim
muscles
harrison
asleep
machines
concentration
mixing
suppose
siege
respond
alleged
todd
proof
bars
retail
elite
paying
sole
thirteen
climb
trio
scientist
breathe
giants
derek
tube
tanks
owen
fighters
origins
ivan
harm
globe
explains
departments
procedure
clerk
firmly
christianity
yale
clouds
automatically
monitor
signature
faint
matrix
lightly
floating
flame
rode
statements
bags
dug
neutral
followers
boom
invented
blond
kenneth
servants
lectures
pot
requiring
practiced
suggesting
collar
laser
swift
zhang
maker
buying
jam
valid
enhanced
pissed
scandal
penn
chronicle
hardy
cox
sunshine
workshops
slope
portraits
varying
conscious
loyalty
graves
prevention
tang
imposed
corn
nicole
torpedo
inquiry
holden
proven
lens
flies
marking
fusion
valentine
minimal
buck
beard
freely
forbidden
berry
considers
unclear
rivalry
maid
toys
welcomed
watts
anticipation
morton
questioning
applying
shouting
ghosts
explosive
lynch
fitting
sunny
combining
vacuum
battlefield
leigh
fu
android
enacted
cope
wreck
cameo
distances
owed
nuts
saddle
collaborative
flexible
diaz
crowds
addressing
prolific
barker
goose
decisive
polite
facial
lil
undergo
hairs
gore
ensuing
someday
mattered
capped
debts
reside
introduces
fleeing
werner
stein
cube
iconic
spill
laundry
splitting
perennial
staggered
inadequate
aching
dizzy
laden
puzzled
obligation
claw
dared
consuming
everett
repeating
preserving
worries
refined
homosexual
naive
exchanges
offended
reviewers
suitcase
handles
cue
prescribed
superhero
creed
canadians
dip
resorts
liking
abel
choke
activism
evergreen
utilizing
accidental
proposes
blazing
drying
philosophers
clone
salute
elm
163
accountant
tuck
humidity
weighted
shootout
bordering
salvage
muse
undertaking
comfortably
invites
glee
bitten
hiss
patiently
provoked
adjusting
lectured
cinematographer
bitterly
immaculate
tongues
precedent
contender
uhf
melville
gigantic
sparse
hue
norma
ineffective
ample
wreckage
disagree
smashing
sleek
forster
viewpoint
swaying
rotting
splashed
zipper
contrasting
disposition
integrating
playfully
sewing
expanse
continuum
versatile
appropriately
careless
needy
gloom
erratic
acidic
flourish
indifferent
humanist
revolutionaries
sociological
hawke
workings
enthusiastically
distracting
yourselves
nouvelle
triumphant
ardent
cheered
trier
sincerely
registering
nonfiction
thrusts
rampant
vittorio
distinctions
puppets
stills
degraded
classify
flavors
giggles
hardship
contradiction
stepmother
teaming
gloss
lax
cheerfully
favorably
fling
heartbreak
loco
cad
soothe
disciplined
slump
parochial
waldo
deafening
agile
twinkle
metaphysical
leaps
imperfect
comical
*
=
became
government
la
students
2001
england
election
sent
1995
officer
groups
paris
campaign
previously
unit
regular
units
meant
el
windows
workers
online
francisco
academic
racing
marine
tonight
flying
equipment
1952
candidate
agency
scientific
prominent
joint
assigned
returning
parties
1938
models
finger
olympic
1920
conversation
maximum
lyrics
besides
lying
anna
promotion
waited
fuel
investigation
inhabitants
admitted
opposed
architect
functions
provincial
knees
collected
jeff
sale
worried
refers
occur
facing
golf
steam
terminal
reduce
classification
mounted
grandfather
acid
businesses
talked
jaw
bush
rice
collaboration
boss
graham
charlotte
cheeks
supplies
monument
crystal
und
careful
tons
revolutionary
classified
jon
meetings
lucas
percussion
replacing
elder
expensive
ratio
completion
flower
decisions
eve
clinical
catherine
figured
technologies
hang
governments
perry
ron
defend
trials
generated
assets
lisa
updated
bid
fortune
mask
flames
garage
rage
exposure
explanation
talks
julie
swung
unsuccessful
squeezed
photos
playoff
em
artwork
variant
rounded
variations
workshop
ruins
rebel
bryan
arrow
pipe
das
sheets
archive
brass
millions
ate
lecture
sally
journalists
centered
grain
afford
drops
tourists
toy
predominantly
altar
roster
argues
suburban
franco
apollo
hurried
boot
apartments
transported
considerably
surveillance
trend
doc
blessed
frustrated
refuse
learns
snap
traces
suggestion
visitor
freshman
basically
dancers
popped
unified
undertaken
tunnels
communicate
chill
eternal
organizing
laurence
settings
commands
espn
moist
burnt
charitable
calvin
clare
gentlemen
mob
ne
filter
mythology
equations
linking
neighbor
grinning
combine
reagan
immigrant
warn
void
lesbian
themed
pursuing
publicity
cloak
guru
prophet
beaches
wrapping
criminals
champagne
seasonal
regards
rogue
drain
downs
wartime
melted
raphael
klein
cellular
remarks
flashing
reef
executives
dusty
implies
telescope
retaining
midst
singular
participant
tops
outlet
tearing
norm
recovering
nolan
hurts
shrug
apex
skeleton
miniseries
stevenson
flush
spanning
projection
resemblance
bean
bind
ragged
recruiting
airs
bluff
prominently
courtesy
allegiance
horrified
illuminated
guiding
clive
bon
accumulated
mankind
fertile
cooler
ashamed
butterflies
brendan
prevalent
definitions
lottery
majors
shaky
exhaustion
surplus
arguably
distract
crawling
delighted
boiling
thorough
gum
ants
encourages
clint
mourning
asphalt
bouncing
inactive
coincidence
beginnings
masked
traps
attendant
absorb
mornings
concentrating
alexandre
transparency
ripping
throbbing
searches
portraying
weakly
bravo
complain
libretto
attackers
turmoil
complaining
salle
skirts
godfrey
assassins
wilder
chords
garner
parlor
handy
nausea
banquet
prostitute
odor
ol
barrage
compliment
remembrance
homework
ounce
bedside
pearce
probation
tactic
fuse
sanity
robbed
fuels
comparatively
gliding
pivotal
prescription
liza
posing
subjective
noisy
grasping
brink
roach
mixes
ventura
larson
harvesting
skulls
ingredient
pearls
shepard
hideous
paralyzed
decomposition
operatic
assaults
tinged
mummy
progresses
whipping
yank
irrational
cumulative
carmichael
catastrophic
insulted
bouts
angelina
unpaid
bled
newcomers
tabloid
hannibal
auschwitz
tarzan
reassure
anchors
seizing
flopped
overwhelmingly
fluttering
overture
macbeth
morals
insider
sterile
molina
adherents
pitted
adolescents
fledgling
skipping
rake
gall
prowess
tackled
manipulating
tainted
kraft
pastry
workout
stains
contenders
glitter
chefs
mika
subconscious
intimidated
crazed
shivers
misunderstood
hysteria
screwing
armchair
boardwalk
january
returned
association
track
recorded
1998
ran
gold
teams
wall
placed
province
europe
sister
kingdom
meet
engine
month
appearance
assembly
dropped
arrived
religious
activities
winter
matches
spain
forms
referred
defense
join
soft
smaller
pressure
block
shirt
exchange
garden
settled
solo
naval
pro
mountains
mount
1960s
types
conducted
bought
jazz
calling
resources
silence
laws
classes
doors
silent
philadelphia
expanded
reference
di
educational
publishing
counter
internal
contained
dave
expansion
khan
examples
kim
personnel
helping
observed
contributed
flag
woods
diego
egypt
spoken
views
gotten
techniques
7th
concrete
testing
danish
tail
sleeping
shell
marketing
prisoners
fruit
marry
spending
masters
emerged
scared
sending
springs
pan
occupation
backed
rates
rick
apple
donald
flows
till
diamond
fault
manual
vast
87
instrument
mason
volumes
gates
attending
awareness
lily
grandmother
drunk
tend
sufficient
bath
illustrated
fictional
connections
reportedly
enforcement
decides
reporting
sporting
garcia
physician
stakes
demonstrated
relieved
focuses
harvey
tested
glasses
writings
excellence
hardware
reader
vary
claude
banking
annie
circular
archives
undergraduate
prey
deemed
commitment
ranges
140
oral
pause
lifting
grateful
log
breed
item
doctorate
pet
beliefs
holmes
rat
wash
nicolas
gut
traced
phenomenon
reynolds
veins
cracked
batting
copenhagen
disabled
mortal
classroom
acquire
absent
satisfaction
travis
millennium
glancing
lawn
terrified
ton
wrap
acclaimed
sends
sunset
revived
hypothesis
lacked
accompanying
conrad
coral
genesis
exercises
hatred
longtime
embedded
slapped
iris
cow
refusing
liner
shirley
doyle
critically
cedar
peaks
teddy
unaware
nurses
trilogy
enhance
petty
preceded
dim
lunar
betrayed
clyde
swiftly
elvis
effectiveness
broader
binary
simulation
progressed
memoir
salvation
professors
crashing
turks
sufficiently
traits
twilight
melanie
unnamed
weber
phenomena
plug
lifelong
submerged
bucket
televised
nail
trombone
processed
candles
helpful
groove
griffith
exiled
duel
immense
patriotic
motivation
decommissioned
anchored
coke
wrath
garde
impacts
curtains
desires
concludes
marilyn
lad
possesses
pardon
kathy
hears
goodness
alternating
advertisement
cracks
imaginary
barrow
clutch
monopoly
folds
eh
gratitude
stranded
commenting
zhao
discoveries
rooted
propelled
stray
bio
winger
thrilled
methodology
yields
restoring
swirling
combustion
contemporaries
heap
enlightenment
affinity
hail
choreography
margins
grenade
advertised
adaptations
bestowed
respects
mystic
springer
battered
waltz
accomplishments
ke
heck
goldman
borrow
akin
miracles
apartheid
formidable
bikes
piss
gestures
shear
oblivious
kitten
anarchist
goldberg
piles
preserves
bumps
consistency
avalanche
resolutions
appetite
feral
bounds
betting
pornography
doubling
bleed
imply
elemental
spikes
frankly
benefited
astronaut
blended
converts
glover
snaps
inflammatory
enhancing
maxim
activate
mommy
overlapping
bertrand
blossom
volatile
insistence
stew
courtroom
assert
communicating
clocks
novelty
typed
illumination
leaping
criticizing
streaks
nemesis
honoring
backbone
poking
oversized
bai
thirst
plastered
mined
clicking
muted
realities
hotter
configurations
poses
vigorously
tides
emphasizing
aristocracy
guzman
forefront
tunisian
darkest
systematically
demonic
eroded
syrup
seater
rash
horrific
cadence
obscured
urges
powerhouse
misunderstanding
plausible
clones
horizons
permitting
shapiro
purge
floats
forte
barrie
someplace
cocky
heller
duly
fleeting
disneyland
afterlife
firth
intern
rigged
adhere
serene
hearst
advises
harmon
warped
billing
tits
scented
backlash
goth
nighttime
minnie
prank
doorstep
humiliated
lina
handheld
zoning
overlook
discontent
hounds
respecting
plumbing
impetus
sidewalks
brat
facades
lullaby
intersect
markedly
contentious
gifford
aground
streamlined
huskies
napoli
infused
m
s
y
september
published
according
military
championship
22
joined
closed
canada
1997
currently
route
forward
uk
sat
model
featured
leader
okay
scored
property
shoulder
location
policy
1973
tree
yeah
watched
agreed
editor
therefore
baseball
1960
broke
border
1962
recently
mass
label
housing
1959
mentioned
farm
secondary
trial
divided
thank
organized
lifted
gained
widely
register
partner
75
arthur
write
sixth
stayed
twelve
granted
noticed
bronze
driving
attacks
existing
northwest
occupied
bowl
rooms
trained
controlled
walter
communications
communication
1950s
roads
antonio
hearing
wondered
billy
norwegian
alan
producing
jews
horses
tim
investment
maintained
juan
cash
friendly
tie
economics
riding
fifty
li
replace
belgium
partners
routes
8th
rapidly
concerns
drinking
120
roy
88
powered
traveled
austrian
useful
critic
baker
virgin
minimum
murray
remove
morris
71
mitchell
absence
jury
alternate
signing
competing
pa
transition
warner
bet
possession
decline
funeral
informed
suspended
rated
delhi
bernard
voting
lab
drum
cream
writes
telephone
options
butler
democracy
loop
mediterranean
cattle
produces
belong
mini
concerning
flood
wire
fist
slide
linear
warned
sullivan
serial
reflected
doubles
personally
dylan
wheels
dependent
distinction
describing
reverse
focusing
collect
shaw
roland
heels
dies
editorial
brooks
namely
ernest
creator
numbered
liu
recreation
orbit
relating
lo
malcolm
seated
extends
columbus
batman
bo
lungs
severely
hunger
rape
playstation
rivals
gesture
collegiate
drawings
hotels
palestinian
michelle
lighter
forgot
trusted
pursued
lawyers
luther
startled
deny
joins
willie
murders
furious
wireless
avoiding
sooner
ruin
openly
brady
trembling
assuming
abdul
reunion
matched
pig
reward
machinery
wives
slot
lone
aftermath
ka
crushed
skilled
governmental
monkey
exhibits
superman
ham
claws
wrestler
tu
advancing
natalie
proceed
rafael
tipped
zoe
prints
roller
scar
debris
lin
fiji
unsuccessfully
ivory
phantom
addresses
caesar
beg
punched
stroked
chips
bombay
mitch
defines
dodge
surge
enabling
instances
angles
plasma
butter
menu
encyclopedia
byron
surveys
favored
advocacy
paved
romeo
photographic
pageant
outline
picnic
eternity
posthumously
rapids
weighed
naomi
comeback
randolph
prone
soaked
poster
bmw
emphasized
ideology
explicit
cultivated
grabs
hooked
implied
mortality
1790
murderer
implications
bermuda
dipped
relied
fringe
ninety
merge
midwest
devils
moan
melting
resume
marvin
titans
catcher
partnerships
guarded
attitudes
revision
isabelle
audrey
feeds
coordinated
ballroom
dripping
malik
lemon
verdict
violated
abbott
dresses
gaza
unstable
praying
kendall
persistent
importantly
avant
plea
tidal
deficit
rails
resurrection
einstein
retrospective
lizard
pauline
skinny
snapping
comprise
seldom
archibald
michele
fencing
chung
caliber
dominate
forged
mckay
irvine
comforting
samurai
standardized
nyc
offset
setup
taiwanese
hailed
omitted
magician
compass
shaken
endured
serbs
coaster
cyber
abused
threatens
boiled
pamela
therapeutic
wholesale
narrated
impatient
render
raging
lds
bilingual
disgusted
diver
charting
graffiti
fueled
susceptible
beers
foreman
ruthless
quintet
willingly
andrei
psychedelic
mandy
hardest
axel
notch
dire
tad
perpetual
leroy
risky
stimulus
kahn
densely
smuggling
bray
coupling
conceal
dolly
backseat
stalking
tendencies
arithmetic
dungeons
sacrificed
wonderland
compromised
disadvantage
paradigm
bully
depictions
jelly
rye
inadvertently
knocks
ensures
collaborators
peanut
authenticity
bumper
stumble
doubtful
trimmed
guise
kazan
unleashed
commended
glamour
sixties
archival
truths
reversal
figuring
cunning
wai
mclaughlin
ushered
stalker
rhino
theorist
indoors
skyscraper
microscope
engulfed
summons
myriad
clarify
barbarian
rudd
coinage
interpreting
karim
hinges
gallo
infinitely
testosterone
scratches
fai
troopers
iq
ruse
adept
liberalism
linger
tenderly
godzilla
lynne
overboard
ledger
heroism
omnibus
bytes
demi
iced
persistence
landau
mccann
confuse
pointedly
dwarfs
charred
clinch
rubbish
appropriated
inhuman
wince
f
march
june
led
health
bed
remained
schools
oh
australian
plan
professor
civil
spanish
1986
chapter
covered
1980
ireland
double
engineering
doctor
sam
fifth
individuals
alexander
boston
consists
risk
residents
households
1950
com
berlin
steps
georgia
method
holy
moon
fields
architecture
independence
respectively
jesus
les
answered
aid
factory
52
subsequent
prepared
electronic
selling
explain
represent
emergency
establishment
plate
finishing
wounded
establish
palm
luke
contain
eleven
opinion
cousin
mail
forty
commune
entering
72
depending
denmark
restored
tools
suicide
clothing
requires
orleans
dick
96
metro
beating
shopping
electoral
ownership
1899
components
grip
orthodox
centers
couch
peaked
marcus
occasion
enemies
leaning
practical
arkansas
tourism
dominated
tommy
discuss
stress
discussed
pete
colin
believes
beijing
ballet
patent
walks
establishing
worship
jeremy
relocated
affect
battles
hart
towers
pedro
specialized
curve
expand
tenth
arch
adrian
circles
holland
theology
variable
seeds
anchor
depicted
climbing
berkeley
exhibit
boxes
freight
kane
mud
closure
daddy
colleagues
cameras
protecting
judgment
hammer
accommodate
sofia
founders
assignment
altered
doug
dimensional
quinn
mosque
intervention
facts
contribute
reid
symbols
compositions
fork
simpson
betty
spreading
trumpet
rolls
consequence
solely
ana
tracking
safely
dense
elderly
developers
geneva
strategies
environments
secretly
rainbow
tara
wizard
highways
counting
angela
sunk
entries
dishes
mighty
maiden
react
civilization
governance
wade
potter
infinite
allison
complaints
babies
170
responses
donna
detachment
dot
playwright
correctly
invested
envelope
needing
immune
elect
steadily
profits
cam
differently
aided
overnight
exceptions
sailor
bug
pray
virtue
newfoundland
observe
sanders
reporters
marker
immortal
wrists
unemployment
teasing
floyd
detention
tighter
realization
captive
disturbed
owe
hierarchy
reyes
predators
afghan
breasts
frankie
circa
agony
brent
extant
mock
stereo
edged
necessity
addiction
conscience
barriers
displacement
freaking
rejection
mafia
corpus
sparked
augustine
weaver
residences
underway
defeats
underwear
assess
updates
obligations
reginald
renewal
crushing
alias
nationalism
presses
practitioners
continually
slides
harlem
seller
progression
undergoing
restless
compelled
beasts
scrap
surround
eponymous
becker
readings
outward
fiery
doris
famed
temporal
homosexuality
alternatives
pork
kang
finch
suppression
lacey
markers
pledge
capitalism
warlord
rests
consume
blush
cascade
infants
zen
skipped
satan
elves
exceeding
needles
monkeys
rom
olympia
amidst
bubbles
vicente
chimney
rosario
lingered
attracts
punches
laced
evenly
rosemary
waits
stripe
playboy
romero
spawned
tease
lending
wrought
haute
stacy
separates
dependence
plato
amir
yong
pandora
stallion
rejects
rendition
insanity
forwards
siren
dorm
brody
vaudeville
dazed
halle
bonding
impatiently
bless
viva
petite
fairies
hush
trusts
etched
cabins
muster
dotted
hints
exploits
kathryn
surrounds
paranormal
usher
stacks
baird
onion
horde
prima
fabian
ut
recalling
requiem
tome
endings
sven
thump
lau
captives
frenzy
stabbing
giggling
shattering
riddle
utilizes
flashback
amc
cub
herring
howling
gesturing
misleading
parrot
stinging
scripted
translating
drumming
disturb
hades
regrets
hardwood
buff
confirms
sorcerer
chilled
snatch
welles
assign
tnt
corbett
bergman
brittle
cloudy
hermitage
clarissa
murderous
sy
harmed
mischievous
telenovela
benevolent
jia
astronauts
malls
diva
sylvie
patting
knitting
maguire
blasting
anarchy
stockings
subsided
letterman
debuts
mora
pluto
loaf
stink
wounding
heartland
girlfriends
gaunt
explodes
accumulate
booths
carousel
persecuted
surfer
iteration
scribe
defiant
hammering
padre
tormented
woolf
h
p
w
april
asked
included
19
germany
1994
size
aircraft
1987
standing
republic
meeting
goal
italy
castle
initially
wing
democratic
cases
judge
pre
19th
sky
cd
males
advanced
sydney
operating
tony
trail
trains
1933
composer
jose
height
acres
entitled
christ
launch
founding
dan
fighter
converted
knight
occurs
samuel
causes
jump
fifteen
roughly
smoke
accompanied
1930s
carter
ceo
98
crash
carlos
parallel
fred
couples
ethan
exposed
whereas
trading
77
description
josh
progressive
participation
slave
guardian
belief
tape
carrier
hudson
thereafter
prayer
lover
sample
arriving
gregory
worker
cuba
hood
rebellion
devoted
harbour
dominant
vertical
pc
ongoing
ho
abilities
gauge
1940s
leonard
ministers
retreat
nancy
rider
stranger
mario
renaissance
croatia
faded
karen
rope
facade
maggie
encountered
spectrum
voyage
ritual
jungle
echo
joshua
seventeen
theological
stability
pin
pierce
finn
thesis
katherine
essay
siblings
profession
bulk
controlling
aboriginal
slowed
os
anton
powder
acceptance
pregnancy
geographical
cello
arctic
orientation
roses
teenager
secular
dig
sip
jeffrey
burden
labels
curtain
woodland
adopt
depicts
asylum
rats
alter
mastering
horns
falcon
ryder
paramount
spells
stuffed
bypass
sorts
chronicles
funk
sharks
derives
trim
yi
celebrities
whites
breach
breakdown
confession
psychic
werewolf
examining
tomatoes
surveyed
distress
mobility
strips
fried
127
attractions
synagogue
shawn
ventures
descriptions
giles
whistle
aaa
leone
nowadays
robots
mat
affects
icy
comparing
underworld
nursery
cunningham
survives
confluence
juliet
judaism
bust
sergio
jockey
moisture
deposited
hare
countless
wines
hymn
avengers
nadia
convenience
perspectives
royals
castles
imprint
handicap
reese
vega
bentley
avon
tempted
kramer
simpler
cutter
flattened
islanders
threads
eisenhower
contributes
violinist
stricken
spies
scenarios
occupational
tar
puppy
contempt
hicks
temptation
motifs
intellectuals
penned
jacqueline
ideological
tattoos
digitally
instability
motorcycles
intrigued
sellers
acquainted
wen
criterion
calculus
augmented
glazed
lays
regeneration
approximation
genevieve
towering
coarse
weddings
rubin
cary
salaries
ridley
jiang
weimar
pee
disapproval
garth
acknowledging
greed
smackdown
amassed
sewer
schultz
dissipated
halftime
motown
affluent
faso
optic
gilmore
burkina
ferris
flinch
perceptions
societal
jock
panorama
accessibility
toro
saigon
chong
mein
ia
snuck
kidd
innate
tully
blushing
existent
sheds
motorized
catalytic
terri
hatfield
cooks
fairness
uncover
distinguishes
eighties
johnnie
boosted
rappers
demographics
inversion
anomaly
jolted
intimately
alarms
rosenthal
substitutes
clicks
maids
e
k
l
u
re
began
august
co
26
arm
coast
africa
command
1979
1972
annual
review
1970
products
planned
jean
shut
beside
bob
officially
rail
sunday
ward
ali
bedroom
representing
forever
victor
athletic
strategy
cook
duties
continuing
coastal
eighth
portugal
10th
glance
campbell
claire
printed
78
15th
ken
surviving
jerusalem
greg
tiger
automatic
citizen
characterized
rogers
tightly
latino
lodge
camps
photographer
deer
um
casualties
stern
yang
depends
arguing
griffin
mar
fraser
edmund
rosa
findings
mama
observer
monroe
burke
lately
novelist
monte
consumers
explored
christine
threshold
dances
underwater
resides
pad
sweep
carey
scarlet
brett
bart
launching
boyd
watches
vera
spectators
synthetic
summary
commercials
lantern
judith
judging
alfonso
scan
counterpart
aiming
paula
270
gymnastics
wes
float
winged
fortunately
mai
drowning
trey
ou
zeus
berg
limb
minus
ark
stalked
switches
loops
unseen
calculations
forrest
hovering
chalk
gunfire
invaders
fertility
slips
70s
wedge
hobby
explanations
rudy
horton
friedman
simpsons
ismail
flux
tyson
mounts
gears
convinces
hem
doo
katz
sexes
bursting
heidi
kangaroo
dynamite
lipstick
spade
reigns
zoom
tres
chop
rehearsals
steamboat
mcdowell
tunis
spaceship
civilized
fifties
mantra
51st
greta
staggering
justine
jeopardy
femme
remade
whitaker
featherweight
occurrences
ballast
lux
swirl
leaks
foo
recreated
scandals
[unused0]
[unused1]
[unused2]
[unused3]
[unused4]
[unused5]
[unused6]
[unused7]
[unused8]
[unused9]
[unused10]
[unused11]
[unused12]
[unused13]
[unused14]
[unused15]
[unused16]
[unused17]
[unused18]
[unused19]
[unused20]
[unused21]
[unused22]
[unused23]
[unused24]
[unused25]
[unused26]
[unused27]
[unused28]
[unused29]
[unused30]
[unused31]
[unused32]
[unused33]
[unused34]
[unused35]
[unused36]
[unused37]
[unused38]
[unused39]
[unused40]
[unused41]
[unused42]
[unused43]
[unused44]
[unused45]
[unused46]
[unused47]
[unused48]
[unused49]
[unused50]
[unused51]
[unused52]
[unused53]
[unused54]
[unused55]
[unused56]
[unused57]
[unused58]
[unused59]
[unused60]
[unused61]
[unused62]
[unused63]
[unused64]
[unused65]
[unused66]
[unused67]
[unused68]
[unused69]
[unused70]
[unused71]
[unused72]
[unused73]
[unused74]
[unused75]
[unused76]
[unused77]
[unused78]
[unused79]
[unused80]
[unused81]
[unused82]
[unused83]
[unused84]
[unused85]
[unused86]
[unused87]
[unused88]
[unused89]
[unused90]
[unused91]
[unused92]
[unused93]
[unused94]
[unused95]
[unused96]
[unused97]
[unused98]
[UNK]
[CLS]
[SEP]
[MASK]
[unused99]
[unused100]
[unused101]
[unused102]
[unused103]
[unused104]
[unused105]
[unused106]
[unused107]
[unused108]
[unused109]
[unused110]
[unused111]
[unused112]
[unused113]
[unused114]
[unused115]
[unused116]
[unused117]
[unused118]
[unused119]
[unused120]
[unused121]
[unused122]
[unused123]
[unused124]
[unused125]
[unused126]
[unused127]
[unused128]
[unused129]
[unused130]
[unused131]
[unused132]
[unused133]
[unused134]
[unused135]
[unused136]
[unused137]
[unused138]
[unused139]
[unused140]
[unused141]
[unused142]
[unused143]
[unused144]
[unused145]
[unused146]
[unused147]
[unused148]
[unused149]
[unused150]
[unused151]
[unused152]
[unused153]
[unused154]
[unused155]
[unused156]
[unused157]
[unused158]
[unused159]
[unused160]
[unused161]
[unused162]
[unused163]
[unused164]
[unused165]
[unused166]
[unused167]
[unused168]
[unused169]
[unused170]
[unused171]
[unused172]
[unused173]
[unused174]
[unused175]
[unused176]
[unused177]
[unused178]
[unused179]
[unused180]
[unused181]
[unused182]
[unused183]
[unused184]
[unused185]
[unused186]
[unused187]
[unused188]
[unused189]
[unused190]
[unused191]
[unused192]
[unused193]
[unused194]
[unused195]
[unused196]
[unused197]
[unused198]
[unused199]
[unused200]
[unused201]
[unused202]
[unused203]
[unused204]
[unused205]
[unused206]
[unused207]
[unused208]
[unused209]
[unused210]
[unused211]
[unused212]
[unused213]
[unused214]
[unused215]
[unused216]
[unused217]
[unused218]
[unused219]
[unused220]
[unused221]
[unused222]
[unused223]
[unused224]
[unused225]
[unused226]
[unused227]
[unused228]
[unused229]
[unused230]
[unused231]
[unused232]
[unused233]
[unused234]
[unused235]
[unused236]
[unused237]
[unused238]
[unused239]
[unused240]
[unused241]
[unused242]
[unused243]
[unused244]
[unused245]
[unused246]
[unused247]
[unused248]
[unused249]
[unused250]
[unused251]
[unused252]
[unused253]
[unused254]
[unused255]
[unused256]
[unused257]
[unused258]
[unused259]
[unused260]
[unused261]
[unused262]
[unused263]
[unused264]
[unused265]
[unused266]
[unused267]
[unused268]
[unused269]
[unused270]
[unused271]
[unused272]
[unused273]
[unused274]
[unused275]
[unused276]
[unused277]
[unused278]
[unused279]
[unused280]
[unused281]
[unused282]
[unused283]
[unused284]
[unused285]
[unused286]
[unused287]
[unused288]
[unused289]
[unused290]
[unused291]
[unused292]
[unused293]
[unused294]
[unused295]
[unused296]
[unused297]
[unused298]
[unused299]
[unused300]
[unused301]
[unused302]
[unused303]
[unused304]
[unused305]
[unused306]
[unused307]
[unused308]
[unused309]
[unused310]
[unused311]
[unused312]
[unused313]
[unused314]
[unused315]
[unused316]
[unused317]
[unused318]
[unused319]
[unused320]
[unused321]
[unused322]
[unused323]
[unused324]
[unused325]
[unused326]
[unused327]
[unused328]
[unused329]
[unused330]
[unused331]
[unused332]
[unused333]
[unused334]
[unused335]
[unused336]
[unused337]
[unused338]
[unused339]
[unused340]
[unused341]
[unused342]
[unused343]
[unused344]
[unused345]
[unused346]
[unused347]
[unused348]
[unused349]
[unused350]
[unused351]
[unused352]
[unused353]
[unused354]
[unused355]
[unused356]
[unused357]
[unused358]
[unused359]
[unused360]
[unused361]
[unused362]
[unused363]
[unused364]
[unused365]
[unused366]
[unused367]
[unused368]
[unused369]
[unused370]
[unused371]
[unused372]
[unused373]
[unused374]
[unused375]
[unused376]
[unused377]
[unused378]
[unused379]
[unused380]
[unused381]
[unused382]
[unused383]
[unused384]
[unused385]
[unused386]
[unused387]
[unused388]
[unused389]
[unused390]
[unused391]
[unused392]
[unused393]
[unused394]
[unused395]
[unused396]
[unused397]
[unused398]
[unused399]
[unused400]
[unused401]
[unused402]
[unused403]
[unused404]
[unused405]
[unused406]
[unused407]
[unused408]
[unused409]
[unused410]
[unused411]
[unused412]
[unused413]
[unused414]
[unused415]
[unused416]
[unused417]
[unused418]
[unused419]
[unused420]
[unused421]
[unused422]
[unused423]
[unused424]
[unused425]
[unused426]
[unused427]
[unused428]
[unused429]
[unused430]
[unused431]
[unused432]
[unused433]
[unused434]
[unused435]
[unused436]
[unused437]
[unused438]
[unused439]
[unused440]
[unused441]
[unused442]
[unused443]
[unused444]
[unused445]
[unused446]
[unused447]
[unused448]
[unused449]
[unused450]
[unused451]
[unused452]
[unused453]
[unused454]
[unused455]
[unused456]
[unused457]
[unused458]
[unused459]
[unused460]
[unused461]
[unused462]
[unused463]
[unused464]
[unused465]
[unused466]
[unused467]
[unused468]
[unused469]
[unused470]
[unused471]
[unused472]
[unused473]
[unused474]
[unused475]
[unused476]
[unused477]
[unused478]
[unused479]
[unused480]
[unused481]
[unused482]
[unused483]
[unused484]
[unused485]
[unused486]
[unused487]
[unused488]
[unused489]
[unused490]
[unused491]
[unused492]
[unused493]
[unused494]
[unused495]
[unused496]
[unused497]
[unused498]
[unused499]
[unused500]
[unused501]
[unused502]
[unused503]
[unused504]
[unused505]
[unused506]
[unused507]
[unused508]
[unused509]
[unused510]
[unused511]
[unused512]
[unused513]
[unused514]
[unused515]
[unused516]
[unused517]
[unused518]
[unused519]
[unused520]
[unused521]
[unused522]
[unused523]
[unused524]
[unused525]
[unused526]
[unused527]
[unused528]
[unused529]
[unused530]
[unused531]
[unused532]
[unused533]
[unused534]
[unused535]
[unused536]
[unused537]
[unused538]
[unused539]
[unused540]
[unused541]
[unused542]
[unused543]
[unused544]
[unused545]
[unused546]
[unused547]
[unused548]
[unused549]
[unused550]
[unused551]
[unused552]
[unused553]
[unused554]
[unused555]
[unused556]
[unused557]
[unused558]
[unused559]
[unused560]
[unused561]
[unused562]
[unused563]
[unused564]
[unused565]
[unused566]
[unused567]
[unused568]
[unused569]
[unused570]
[unused571]
[unused572]
[unused573]
[unused574]
[unused575]
[unused576]
[unused577]
[unused578]
[unused579]
[unused580]
[unused581]
[unused582]
[unused583]
[unused584]
[unused585]
[unused586]
[unused587]
[unused588]
[unused589]
[unused590]
[unused591]
[unused592]
[unused593]
[unused594]
[unused595]
[unused596]
[unused597]
[unused598]
[unused599]
[unused600]
[unused601]
[unused602]
[unused603]
[unused604]
[unused605]
[unused606]
[unused607]
[unused608]
[unused609]
[unused610]
[unused611]
[unused612]
[unused613]
[unused614]
[unused615]
[unused616]
[unused617]
[unused618]
[unused619]
[unused620]
[unused621]
[unused622]
[unused623]
[unused624]
[unused625]
[unused626]
[unused627]
[unused628]
[unused629]
[unused630]
[unused631]
[unused632]
[unused633]
[unused634]
[unused635]
[unused636]
[unused637]
[unused638]
[unused639]
[unused640]
[unused641]
[unused642]
[unused643]
[unused644]
[unused645]
[unused646]
[unused647]
[unused648]
[unused649]
[unused650]
[unused651]
[unused652]
[unused653]
[unused654]
[unused655]
[unused656]
[unused657]
[unused658]
[unused659]
[unused660]
[unused661]
[unused662]
[unused663]
[unused664]
[unused665]
[unused666]
[unused667]
[unused668]
[unused669]
[unused670]
[unused671]
[unused672]
[unused673]
[unused674]
[unused675]
[unused676]
[unused677]
[unused678]
[unused679]
[unused680]
[unused681]
[unused682]
[unused683]
[unused684]
[unused685]
[unused686]
[unused687]
[unused688]
[unused689]
[unused690]
[unused691]
[unused692]
[unused693]
[unused694]
[unused695]
[unused696]
[unused697]
[unused698]
[unused699]
[unused700]
[unused701]
[unused702]
[unused703]
[unused704]
[unused705]
[unused706]
[unused707]
[unused708]
[unused709]
[unused710]
[unused711]
[unused712]
[unused713]
[unused714]
[unused715]
[unused716]
[unused717]
[unused718]
[unused719]
[unused720]
[unused721]
[unused722]
[unused723]
[unused724]
[unused725]
[unused726]
[unused727]
[unused728]
[unused729]
[unused730]
[unused731]
[unused732]
[unused733]
[unused734]
[unused735]
[unused736]
[unused737]
[unused738]
[unused739]
[unused740]
[unused741]
[unused742]
[unused743]
[unused744]
[unused745]
[unused746]
[unused747]
[unused748]
[unused749]
[unused750]
[unused751]
[unused752]
[unused753]
[unused754]
[unused755]
[unused756]
[unused757]
[unused758]
[unused759]
[unused760]
[unused761]
[unused762]
[unused763]
[unused764]
[unused765]
[unused766]
[unused767]
[unused768]
[unused769]
[unused770]
[unused771]
[unused772]
[unused773]
[unused774]
[unused775]
[unused776]
[unused777]
[unused778]
[unused779]
[unused780]
[unused781]
[unused782]
[unused783]
[unused784]
[unused785]
[unused786]
[unused787]
[unused788]
[unused789]
[unused790]
[unused791]
[unused792]
[unused793]
[unused794]
[unused795]
[unused796]
[unused797]
[unused798]
[unused799]
[unused800]
[unused801]
[unused802]
[unused803]
[unused804]
[unused805]
[unused806]
[unused807]
[unused808]
[unused809]
[unused810]
[unused811]
[unused812]
[unused813]
[unused814]
[unused815]
[unused816]
[unused817]
[unused818]
[unused819]
[unused820]
[unused821]
[unused822]
[unused823]
[unused824]
[unused825]
[unused826]
[unused827]
[unused828]
[unused829]
[unused830]
[unused831]
[unused832]
[unused833]
[unused834]
[unused835]
[unused836]
[unused837]
[unused838]
[unused839]
[unused840]
[unused841]
[unused842]
[unused843]
[unused844]
[unused845]
[unused846]
[unused847]
[unused848]
[unused849]
[unused850]
[unused851]
[unused852]
[unused853]
[unused854]
[unused855]
[unused856]
[unused857]
[unused858]
[unused859]
[unused860]
[unused861]
[unused862]
[unused863]
[unused864]
[unused865]
[unused866]
[unused867]
[unused868]
[unused869]
[unused870]
[unused871]
[unused872]
[unused873]
[unused874]
[unused875]
[unused876]
[unused877]
[unused878]
[unused879]
[unused880]
[unused881]
[unused882]
[unused883]
[unused884]
[unused885]
[unused886]
[unused887]
[unused888]
[unused889]
[unused890]
[unused891]
[unused892]
[unused893]
[unused894]
[unused895]
[unused896]
[unused897]
[unused898]
[unused899]
[unused900]
[unused901]
[unused902]
[unused903]
[unused904]
[unused905]
[unused906]
[unused907]
[unused908]
[unused909]
[unused910]
[unused911]
[unused912]
[unused913]
[unused914]
[unused915]
[unused916]
[unused917]
[unused918]
[unused919]
[unused920]
[unused921]
[unused922]
[unused923]
[unused924]
[unused925]
[unused926]
[unused927]
[unused928]
[unused929]
[unused930]
[unused931]
[unused932]
[unused933]
[unused934]
[unused935]
[unused936]
[unused937]
[unused938]
[unused939]
[unused940]
[unused941]
[unused942]
[unused943]
[unused944]
[unused945]
[unused946]
[unused947]
[unused948]
[unused949]
[unused950]
[unused951]
[unused952]
[unused953]
[unused954]
[unused955]
[unused956]
[unused957]
[unused958]
[unused959]
[unused960]
[unused961]
[unused962]
[unused963]
[unused964]
[unused965]
[unused966]
[unused967]
[unused968]
[unused969]
[unused970]
[unused971]
[unused972]
[unused973]
[unused974]
[unused975]
[unused976]
[unused977]
[unused978]
[unused979]
[unused980]
[unused981]
[unused982]
[unused983]
[unused984]
[unused985]
[unused986]
[unused987]
[unused988]
[unused989]
[unused990]
[unused991]
[unused992]
[unused993]
"
%
0
7
<
>
@
[
\
]
^
_
c
g
v
z
{
|
}
~
¡
¢
£
¤
¥
¦
§
¨
©
ª
«
¬
®
°
±
²
³
´
µ
¶
·
¹
º
»
¼
½
¾
¿
×
ß
æ
ð
÷
ø
þ
đ
ħ
ı
ł
ŋ
œ
ƒ
ɐ
ɑ
ɒ
ɔ
ɕ
ə
ɛ
ɡ
ɣ
ɨ
ɪ
ɫ
ɬ
ɯ
ɲ
ɴ
ɹ
ɾ
ʀ
ʁ
ʂ
ʃ
ʉ
ʊ
ʋ
ʌ
ʎ
ʐ
ʑ
ʒ
ʔ
ʰ
ʲ
ʳ
ʷ
ʸ
ʻ
ʼ
ʾ
ʿ
ˈ
ː
ˡ
ˢ
ˣ
ˤ
α
β
γ
δ
ε
ζ
η
θ
ι
κ
λ
μ
ν
ξ
ο
π
ρ
ς
σ
τ
υ
φ
χ
ψ
ω
а
б
в
г
д
е
ж
з
и
к
л
м
н
о
п
р
с
т
у
ф
х
ц
ч
ш
щ
ъ
ы
ь
э
ю
я
ђ
є
і
ј
љ
њ
ћ
ӏ
ա
բ
գ
դ
ե
թ
ի
լ
կ
հ
մ
յ
ն
ո
պ
ս
վ
տ
ր
ւ
ք
־
א
ב
ג
ד
ה
ו
ז
ח
ט
י
ך
כ
ל
ם
מ
ן
נ
ס
ע
ף
פ
ץ
צ
ק
ר
ש
ת
،
ء
ا
ب
ة
ت
ث
ج
ح
خ
د
ذ
ر
ز
س
ش
ص
ض
ط
ظ
ع
غ
ـ
ف
ق
ك
ل
م
ن
ه
و
ى
ي
ٹ
پ
چ
ک
گ
ں
ھ
ہ
ی
ے
अ
आ
उ
ए
क
ख
ग
च
ज
ट
ड
ण
त
थ
द
ध
न
प
ब
भ
म
य
र
ल
व
श
ष
स
ह
ा
ि
ी
ो
।
॥
ং
অ
আ
ই
উ
এ
ও
ক
খ
গ
চ
ছ
জ
ট
ড
ণ
ত
থ
দ
ধ
ন
প
ব
ভ
ম
য
র
ল
শ
ষ
স
হ
া
ি
ী
ে
க
ச
ட
த
ந
ன
ப
ம
ய
ர
ல
ள
வ
ா
ி
ு
ே
ை
ನ
ರ
ಾ
ක
ය
ර
ල
ව
ා
ก
ง
ต
ท
น
พ
ม
ย
ร
ล
ว
ส
อ
า
เ
་
།
ག
ང
ད
ན
པ
བ
མ
འ
ར
ལ
ས
မ
ა
ბ
გ
დ
ე
ვ
თ
ი
კ
ლ
მ
ნ
ო
რ
ს
ტ
უ
ᄀ
ᄂ
ᄃ
ᄅ
ᄆ
ᄇ
ᄉ
ᄊ
ᄋ
ᄌ
ᄎ
ᄏ
ᄐ
ᄑ
ᄒ
ᅡ
ᅢ
ᅥ
ᅦ
ᅧ
ᅩ
ᅪ
ᅭ
ᅮ
ᅯ
ᅲ
ᅳ
ᅴ
ᅵ
ᆨ
ᆫ
ᆯ
ᆷ
ᆸ
ᆼ
ᴬ
ᴮ
ᴰ
ᴵ
ᴺ
ᵀ
ᵃ
ᵇ
ᵈ
ᵉ
ᵍ
ᵏ
ᵐ
ᵒ
ᵖ
ᵗ
ᵘ
ᵢ
ᵣ
ᵤ
ᵥ
ᶜ
ᶠ
‐
‑
‒
–
—
―
‖
‘
’
‚
“
”
„
†
‡
•
…
‰
′
″
›
‿
⁄
⁰
ⁱ
⁴
⁵
⁶
⁷
⁸
⁹
⁺
⁻
ⁿ
₀
₁
₂
₃
₄
₅
₆
₇
₈
₉
₊
₍
₎
ₐ
ₑ
ₒ
ₓ
ₕ
ₖ
ₗ
ₘ
ₙ
ₚ
ₛ
ₜ
₤
₩
€
₱
₹
ℓ
№
ℝ
™
⅓
⅔
←
↑
→
↓
↔
↦
⇄
⇌
⇒
∂
∅
∆
∇
∈
−
∗
∘
√
∞
∧
∨
∩
∪
≈
≡
≤
≥
⊂
⊆
⊕
⊗
⋅
─
│
■
▪
●
★
☆
☉
♠
♣
♥
♦
♭
♯
⟨
⟩
ⱼ
⺩
⺼
⽥
、
。
〈
〉
《
》
「
」
『
』
〜
あ
い
う
え
お
か
き
く
け
こ
さ
し
す
せ
そ
た
ち
っ
つ
て
と
な
に
ぬ
ね
の
は
ひ
ふ
へ
ほ
ま
み
む
め
も
や
ゆ
よ
ら
り
る
れ
ろ
を
ん
ァ
ア
ィ
イ
ウ
ェ
エ
オ
カ
キ
ク
ケ
コ
サ
シ
ス
セ
タ
チ
ッ
ツ
テ
ト
ナ
ニ
ノ
ハ
ヒ
フ
ヘ
ホ
マ
ミ
ム
メ
モ
ャ
ュ
ョ
ラ
リ
ル
レ
ロ
ワ
ン
・
ー
一
三
上
下
不
世
中
主
久
之
也
事
二
五
井
京
人
亻
仁
介
代
仮
伊
会
佐
侍
保
信
健
元
光
八
公
内
出
分
前
劉
力
加
勝
北
区
十
千
南
博
原
口
古
史
司
合
吉
同
名
和
囗
四
国
國
土
地
坂
城
堂
場
士
夏
外
大
天
太
夫
奈
女
子
学
宀
宇
安
宗
定
宣
宮
家
宿
寺
將
小
尚
山
岡
島
崎
川
州
巿
帝
平
年
幸
广
弘
張
彳
後
御
德
心
忄
志
忠
愛
成
我
戦
戸
手
扌
政
文
新
方
日
明
星
春
昭
智
曲
書
月
有
朝
木
本
李
村
東
松
林
森
楊
樹
橋
歌
止
正
武
比
氏
民
水
氵
氷
永
江
沢
河
治
法
海
清
漢
瀬
火
版
犬
王
生
田
男
疒
発
白
的
皇
目
相
省
真
石
示
社
神
福
禾
秀
秋
空
立
章
竹
糹
美
義
耳
良
艹
花
英
華
葉
藤
行
街
西
見
訁
語
谷
貝
貴
車
軍
辶
道
郎
郡
部
都
里
野
金
鈴
镇
長
門
間
阝
阿
陳
陽
雄
青
面
風
食
香
馬
高
龍
龸
ﬁ
ﬂ
！
（
）
，
－
．
／
：
？
～
##s
##a
##e
##i
##ing
##n
##o
##d
##ed
##r
##y
##t
##er
didn
##ly
##l
000
district
##m
##u
##es
2010
##h
##on
##k
2011
july
october
12
2012
2008
2009
##us
##c
november
located
december
2013
2007
##g
2006
2014
ve
##an
2015
february
wasn
died
village
2016
st
##p
##en
##in
2005
16
##man
##al
army
##ia
14
division
2017
2004
17
km
council
##2
##z
couldn
##is
24
##1
2003
##b
continued
##3
non
##ra
##na
21
##ers
##f
royal
##4
radio
##le
##6
services
##7
union
##ic
##x
23
site
##v
##te
##8
announced
##5
founded
##ne
northern
28
miles
##ie
##ton
27
##9
museum
##0
##ta
elected
minister
##th
mr
##la
1996
training
railway
29
2018
originally
stood
mi
signed
met
##ness
centre
##ch
##um
institute
1992
committee
##da
dr
sold
##ry
##w
31
##ma
##rs
coach
wouldn
official
census
##el
1991
##re
##os
1990
changed
##ar
sir
hadn
##ka
studies
rights
largest
##ist
magazine
##ian
thus
completed
data
##or
vocals
##ism
management
federal
tournament
doesn
reported
##ling
1988
systems
saint
capital
##ity
bay
##as
senior
ft
organization
countries
conference
security
los
##ley
##ted
##ng
##ville
owned
1st
##able
##ri
stated
staff
governor
medal
1985
introduced
##ies
buildings
##land
##ur
operations
related
texas
##ya
approximately
500
nine
active
tracks
regional
operation
##ine
1983
isbn
additional
shook
km²
1982
airport
listed
contract
##de
##ki
navy
##ts
##ro
championships
commission
attended
##less
##ey
municipality
offered
##ion
1981
200
noted
##ha
smiled
##am
1976
1978
caused
companies
income
bass
parliament
1974
##ter
stadium
angeles
##ge
assistant
soviet
1977
financial
##ll
##se
##st
nodded
##ation
##nt
victory
1968
##son
1945
bishop
##et
launched
retired
prize
##ce
##to
1971
2nd
port
anti
45
response
##ting
1969
increased
administration
virginia
programs
guard
mm
##ble
islands
chairman
commander
isn
1967
selected
fort
regiment
journal
35
##ke
##ni
operated
##j
##tion
##ham
##ive
oil
65
florida
nearby
congress
subsequently
##do
pacific
##ca
township
1964
1966
##men
##ized
1965
pennsylvania
claimed
##ous
genus
##va
supported
wales
tower
vice
parish
branch
32
stared
##id
##co
##ck
russia
##ns
metres
rule
troops
##no
1944
corps
##ga
cities
spread
showed
mayor
transport
##li
##ment
chart
##ba
##ner
mrs
##ko
cannot
##ate
seasons
##io
1963
##wood
stations
squadron
iron
##led
kilometres
ships
article
##ty
britain
##ve
acquired
poland
##sa
officers
nations
promoted
ministry
1942
politician
##by
spoke
##ier
##ti
estate
1961
johnson
newspaper
jr
olympics
vote
##field
carolina
global
females
dutch
safety
firm
maria
proposed
agreement
affairs
3rd
1943
administrative
1956
formerly
corporation
issued
drums
victoria
shortly
protection
elections
percent
hockey
1941
##ford
1940
competed
replied
1948
steel
glanced
##ja
bus
polish
destroyed
founder
1939
lay
reserve
usa
##ler
1946
industrial
appearances
avenue
infantry
33
republican
owner
70
champions
accepted
##ally
##ina
1955
##ization
whispered
median
engineer
##ful
##go
senate
00
1947
software
44
##il
transferred
leaned
##at
activity
36
orchestra
haven
bbc
taught
planning
albums
rugby
grabbed
##hi
typically
1954
1953
ohio
##berg
fought
##der
alex
headquarters
alongside
des
simon
andrew
1949
34
settlement
##sh
renamed
enemy
##rd
leadership
deputy
##lin
battalion
facilities
1951
platform
1990s
##lo
##ot
commonly
##za
letters
defeat
languages
purchased
occurred
##q
declared
applied
sciences
##me
fleet
##ius
michigan
leaders
##line
##den
birth
##it
64
palace
leg
participated
formation
rome
yards
entrance
##wa
##ad
##ite
##que
38
##ard
adopted
premier
du
##les
##ff
brigade
teaching
weapons
supreme
37
relations
##tor
plants
1936
##age
1918
internet
400
communities
railroad
inc
density
##di
illinois
reports
##ir
der
facility
colonel
##mi
bell
sales
4th
oxford
situated
designated
distribution
hosted
##est
estimated
##ria
toronto
footballer
##ze
en
rear
brazil
##well
##ated
representative
ranked
newly
finals
##ee
phase
massachusetts
crown
organizations
roof
42
fox
labour
fc
##ah
1935
cells
identified
attacked
positions
imperial
39
materials
##ji
1930
citizens
confirmed
shit
##ov
votes
pakistan
##pa
representatives
##ish
wine
faculty
##ps
resulting
cemetery
1919
exhibition
explained
injury
apartment
municipal
netherlands
billion
constitution
1914
francis
opposition
ontario
rolled
permanent
##tes
##lla
sites
##way
1934
##house
55
officials
1917
oldest
##tic
##ger
qualified
41
##un
economy
1929
speech
authorities
shall
graduate
desk
passenger
##ant
ass
weather
fund
cm
southeast
##burg
application
bc
##ura
transfer
ex
regions
earl
federation
1928
obtained
portion
##town
##ding
1932
##tte
vehicles
mobile
##ping
weren
##ize
47
sweden
wolf
kg
alliance
##ay
visited
matt
fm
defence
persian
43
methods
##ging
arrested
cambridge
programming
villages
elementary
districts
1931
signal
bird
programme
##ol
49
communist
sector
patrick
##ss
origin
1927
##ent
publication
wings
##tt
briefly
kissed
##be
causing
albert
articles
northeast
gate
1922
multi
##ky
funding
46
1924
##ak
##ial
##han
containing
offices
restaurant
pope
5th
aired
commissioned
##per
approved
employed
1925
asking
increasing
##nd
temperature
statement
towns
##ls
1912
bureau
cape
1926
weekly
presidential
legislative
1921
##ai
##au
##ny
978
##ring
artillery
un
institutions
chose
pp
##ut
attorney
billboard
agricultural
lands
##bury
iv
moscow
1923
guards
slid
1915
##kin
melbourne
southwest
1916
##ron
link
ep
inch
gene
fixed
worldwide
chapel
##head
developing
1910
papers
18th
aren
lap
survey
ma
##ow
##ium
priest
motor
sounded
##mer
150
patients
funds
consisted
marie
canal
sr
treaty
turkish
recognition
residence
cathedral
fired
##pe
##sen
birds
broadcasting
##ong
bachelor
seventh
registered
assumed
chemical
retirement
progress
##ised
banks
manchester
nfl
##bo
tennis
applications
junction
incorporated
ceremony
##ds
hers
stairs
kansas
hung
scheduled
austria
norway
protected
1913
employees
##ists
tropical
##ries
minnesota
philippines
54
retrieved
1900
gordon
##dy
backing
muslim
crossing
lawyer
educated
##ana
kelly
colorado
##worth
600
survived
##ide
56
ltd
1911
sri
53
transportation
weapon
arena
users
senator
engines
clark
wheel
session
drove
hamilton
request
expressed
injured
churches
tunnel
agriculture
softly
cabinet
regarded
joining
indiana
##ea
##ms
protein
mirror
singapore
covering
##nes
soldier
attendance
historian
wisconsin
argued
painter
##don
inches
##ku
missouri
vol
grounds
switzerland
##gan
reform
ha
resigned
burned
tennessee
locked
##mo
dating
purchase
user
##pur
##ul
merged
1908
brick
understood
dynasty
queensland
promote
cards
referee
##si
arizona
colonial
##rt
candidates
##ell
6th
courses
weekend
59
##om
installed
swiss
costs
lincoln
##he
file
maryland
assistance
persons
trophy
800
58
oregon
indicated
houston
##ure
consisting
##ara
57
cycle
##che
frederick
arranged
loan
pattern
disappeared
##ney
translated
##zed
lip
arab
##chi
cave
prix
sections
courts
coat
knife
vs
voted
degrees
finance
quebec
ruled
operate
musician
separated
attend
ranking
kings
passengers
mining
dam
##ik
associate
greece
##ker
rivers
consecutive
##ski
sighed
sq
documents
1905
##ini
islamic
distributed
organisation
arrival
08
adjacent
stating
1906
flew
##ran
tokyo
publications
##tone
ridge
storage
1907
concluded
universities
borough
250
constituency
margaret
montreal
17th
jan
vocal
##ica
1909
andy
##jo
##ise
meters
meanwhile
landed
compete
grass
czech
regularly
charges
##ung
solution
pierre
glad
##ning
physics
hungarian
expedition
85
##red
mathematics
jumped
mph
##ux
##gh
##hip
owners
kentucky
emma
designs
profit
argentina
##gs
cole
detroit
branches
smiling
miami
recordings
##dale
##bi
arabic
09
##one
##ons
fishing
residential
##ary
starred
##ang
##ue
commonwealth
##cy
##ors
##ped
rio
##ber
additionally
scheme
conservation
##and
##ore
hunt
1904
instruments
demon
earliest
colony
studying
##ks
slipped
05
iraq
fifa
##im
07
counties
clay
visitors
##ded
aviation
##vi
##ino
temporary
audio
##tz
ann
honorary
06
dallas
measures
16th
parliamentary
indicate
dublin
louisiana
1902
1901
1903
membership
medieval
scholars
62
##tan
ms
baron
linked
soil
diocese
##lan
ncaa
##mann
shouldn
waist
##tus
ross
organ
manufacturing
whilst
moth
gardens
heading
##zi
##out
bottle
responded
04
jobs
##ating
commissioner
secure
tests
##gi
oklahoma
designer
disc
paused
atlanta
##gate
praised
las
satellite
hungary
visiting
##sky
deck
poems
norman
##water
speaker
rifle
domain
premiered
##her
dc
01
eliminated
ceiling
##nce
mississippi
admiral
##bs
aunt
tribe
requirements
amongst
ukraine
edinburgh
hunting
gathered
##ek
ty
snapped
solar
cavalry
##tta
iowa
index
charity
thompson
tip
##back
ukrainian
surgery
##more
kent
puerto
cleared
97
guitarist
blocks
electrical
agree
panel
##ged
peninsula
vienna
debuted
tamil
songwriter
passage
03
##tive
retained
##izing
malaysia
##ola
warren
maintenance
allied
##yn
qualifying
policies
cleveland
hat
battery
authors
lb
equipped
coalition
ambassador
dna
1898
gonna
##res
agents
frequency
61
gulf
industries
charts
legislation
##idae
mac
appointment
shield
socialist
abbey
throne
replacement
charter
cloud
accounts
oak
connecticut
wright
colour
networks
voiced
gabriel
##cing
forehead
mp
##ens
remix
##ii
forests
brazilian
engineers
76
correct
instrumental
##des
67
##cs
bobby
jamie
cap
knee
##shi
hosts
02
protest
ottoman
symphony
##sis
63
boundary
1890
processes
##work
##ft
##nia
91
illegal
##van
jacob
##lle
liverpool
baltimore
honour
approval
92
statue
##ster
indonesia
rounds
boats
formally
worn
muttered
11th
emily
wished
vessel
bent
compilation
keyboards
belonged
68
raising
##board
pittsburgh
##up
9th
81
indigenous
scholar
##zer
##gy
attracted
##ver
1895
demanded
customers
##ac
1896
logan
revival
keys
modified
commanded
jeans
##ious
upset
phil
##bly
defeating
coverage
external
parks
helen
il
clan
romania
##ied
mills
##su
shrugged
1897
initiative
breakfast
carbon
700
69
lasted
74
°c
processing
criticized
guests
sang
##vin
legislature
##bridge
uniform
purple
liquid
karl
##ld
ny
reporter
newspapers
14th
basin
filed
collections
monastery
tag
missions
sebastian
restoration
73
benjamin
julian
declined
output
finland
barbara
##port
##ram
82
##ities
kw
electricity
symbol
##ving
sheriff
characteristics
##je
button
summit
vessels
advertising
kicked
patrol
1889
competitions
athletics
##logy
sponsored
1893
acoustic
##sm
##tra
##so
territories
infrastructure
thailand
archbishop
##sy
assist
blake
arrangement
serbian
scent
fur
dj
hp
refer
##ora
1892
##ten
penalty
seed
79
pole
1894
stable
alpha
constitutional
alcohol
devil
architectural
habitat
##istic
##ics
##ok
preserved
##ming
cited
scholarship
cbs
1885
editions
knocked
##ett
saints
youngest
##ily
climbed
##ita
##tors
##ct
choir
lakes
revenue
annually
1891
##ice
fuck
farmers
involvement
shouted
tech
encouraged
taiwan
representation
##lia
##em
cargo
cried
1920s
occasions
cabin
utah
##isation
##ance
victorian
##rin
shares
seth
uefa
medals
colleges
transit
##ye
##kar
publisher
##ened
elevation
##ae
sigh
leo
1888
##ua
1000
hips
diameter
identify
violin
##sk
richmond
1864
connor
sergeant
1865
transmission
op
sacred
portland
agencies
hull
muscle
sculpture
lloyd
statistics
supports
1880
recovered
concerts
##ano
eggs
files
premiere
keith
##vo
turner
##zing
mate
##ach
##ev
##ology
withdrew
fled
##ud
glasgow
funded
nbc
##ata
cooperation
supporters
judges
justin
hallway
##ick
graduating
continental
##ho
intention
##ese
egyptian
claiming
vi
##ru
nurse
partially
##rum
##rn
touring
duo
civilian
channels
##king
hebrew
1887
intersection
##gar
##zo
nova
bench
costa
##ered
drivers
obtain
##lis
##dae
honey
##rian
1861
posted
collins
preferred
operator
##po
laura
dennis
businessman
ph
1862
venue
remainder
##lli
##ci
biological
boyfriend
1863
dirt
buffalo
fa
##era
displayed
##gen
##tti
madrid
component
widespread
##sed
1886
vancouver
overseas
crying
descent
##ris
regime
1870
provinces
zane
ted
tribes
lp
researchers
volunteer
manor
silk
milan
donated
allies
principle
##ves
##ans
copper
##uk
inter
links
grinned
competitive
##oy
##hu
texts
finnish
defending
1884
affiliated
villa
periods
belgian
ruling
folded
licensed
resort
demolished
hans
1881
traded
photographs
##fa
beth
percentage
yorkshire
erected
ss
grades
ceased
islam
##ible
chile
m²
sixteen
##ich
commented
hampshire
pounds
checked
regulations
afghanistan
rico
liberty
wells
leaf
##yan
romanian
monthly
patterns
gmina
##tory
madison
hurricane
rev
##ians
bristol
##ula
germans
freyja
##ins
populations
maine
spencer
doorway
##ani
##sson
##lt
nhl
##hill
drummer
guinea
##ova
##ston
instant
attributed
horn
ain
railways
##ao
autumn
ferry
opponent
traveling
secured
corridor
sheet
trinity
indicates
murdered
fitted
1882
mines
shocked
vegas
##light
caribbean
##ou
continuous
waved
raf
nathan
bat
murmured
interrupted
residing
pioneer
harold
aaron
##net
delta
attempting
chorus
eyed
jail
##llo
connecting
wealth
##ved
slaves
rangers
rebuilt
##wick
cardinal
muhammad
relation
runners
repair
assisted
lists
innings
whisper
nearest
voters
clinton
screamed
lions
andre
hms
ban
pine
wrist
voivodeship
timber
##ned
##nan
##ane
cameron
uss
identical
categories
switched
serbia
noah
peoples
##off
locally
platforms
lanka
herbert
outdoor
toured
1883
contested
1878
exclusive
##dra
prisoner
bangladesh
publicly
wealthy
thai
##ys
isolated
select
##ric
insisted
pen
spotted
wider
lowest
##time
nod
##hn
furthermore
magazines
##ery
requested
peru
reed
chancellor
knights
eldest
reduction
1860
volunteers
##tis
##hl
advisory
endemic
settlers
pursue
consumer
1876
eu
compound
mansion
sentenced
deployed
guitars
frowned
involves
mechanism
kilometers
shops
maps
terminus
duncan
bridges
##pers
fed
derby
swallowed
##ros
hawaii
jurisdiction
##op
organised
##side
adelaide
biology
se
##ties
swing
##rie
implementation
stolen
##sha
colombia
edwards
##mm
recalled
##ball
nigeria
breast
##ren
furniture
pupils
##lus
balls
client
alaska
genetic
##cia
##ening
lightning
fee
skull
##ique
earning
##ei
missile
activist
porch
fourteen
1871
decorated
##shire
housed
##ock
chess
sailed
doctors
##ire
##gon
##wan
1879
amendment
sized
volleyball
spun
acre
increases
stopping
drafted
scout
1875
shoved
munich
tenure
##cher
##ical
ranging
www
tyler
virtual
##let
muslims
immigrants
speakers
belonging
prefecture
farmer
rubbed
beam
sur
subsidiary
##cha
armenian
sao
dropping
##fer
microsoft
reply
1867
festivals
##ken
immigration
sandy
isaac
implemented
##fish
initiated
householder
tourist
##ction
sultan
riley
preparation
aboard
slammed
baptist
interstate
playoffs
##ika
1877
130
##tar
hindu
tours
sank
athens
1872
denver
welfare
suburb
exclusively
yelled
1868
##med
##ette
1874
internationally
computers
conductor
hello
dispute
prices
amsterdam
flights
tigers
inn
municipalities
##mus
airlines
pm
archaeological
1873
devon
comment
##ites
settlements
suite
barcelona
jefferson
##tin
##lu
grandson
hi
thumb
bulgarian
##ix
1866
kyle
alberta
romanized
##ward
acquisition
cliff
han
merger
custom
##dar
nee
gilbert
graduation
##nts
assessment
cafe
democrat
commons
grove
##yo
completing
##py
pairs
##ched
resource
##bach
promoting
##down
##fully
florence
incumbent
partial
900
olivia
controls
##mic
shelter
temperatures
##od
brisbane
marble
comprehensive
oxygen
##kov
inaugural
referring
quarters
##ivity
lined
mars
dakota
norfolk
##°
helicopter
congressional
##sing
inspector
bitch
departed
##ters
coaching
manufacturer
columns
unincorporated
nevada
dining
manuel
eighteen
elevator
brushed
plates
ivy
congregation
##len
slept
taxes
restricted
negotiations
statistical
intermediate
ruler
gothic
listened
eligible
buses
syria
cincinnati
collapsed
recipient
philippine
maritime
goddess
database
##ified
##lon
beetle
regulation
anglo
coins
pressing
##oon
shipping
locomotives
nephew
##mes
honors
travelled
sierra
ibn
##over
fortress
sa
recognised
1869
##dan
##mar
coaches
##ington
northwestern
##ona
youtube
historians
submitted
virus
attacking
drake
##ere
diseases
marc
stem
leeds
##cus
##ab
farming
##lock
visits
restaurants
experiments
bases
shah
opponents
verse
territorial
##ira
##hs
instruction
inherited
##vic
employee
rabbi
watson
payment
##ala
##tre
fastest
banned
ruth
touchdown
boards
metre
favour
travels
##ular
permitted
kenya
den
originated
##ral
resumed
##rus
servant
blinked
extend
##ias
##sey
input
cylinder
##fe
bullet
##wn
croatian
preserve
pradesh
##ess
respective
1850
##ew
corresponding
convicted
caroline
##dor
br
trent
buddhist
1848
maurice
altitude
##ering
mouse
revised
##sley
##ig
crashed
campaigns
legion
##ability
customer
cancelled
##lar
liga
participating
contributing
printing
##burn
##rk
bin
##my
symptoms
binding
vocalist
dancer
##nie
grammar
gospel
democrats
ya
sc
diplomatic
##ser
mathematical
quit
defended
oriented
##heim
fundamental
confederate
chuck
sliding
##ware
narrowed
petersburg
bulgaria
otto
phd
##ama
pitcher
reservoir
bennett
extensively
##ative
ranch
protests
##pin
influences
##hr
calendar
##all
cruz
locomotive
basement
uncredited
phillips
obama
##ain
min
raid
breeding
inducted
leagues
axis
montana
eagles
##ked
supplied
instructions
picking
indicating
christians
tomb
electronics
lords
readers
engagement
160
##feld
peer
tissue
logo
##ration
°f
floors
##ven
architects
reducing
##our
##ments
1859
ottawa
##har
samples
declaration
proteins
resignation
francois
saudi
advocate
exhibited
armor
twins
##ras
abraham
reviewed
jo
temporarily
physically
curled
##ena
difficulties
bengal
usage
##ban
riders
certificate
##pi
warsaw
##mon
mutual
1857
customs
eugene
removal
dame
heir
pilots
nepal
google
preparing
brad
louise
##₂
liam
##ably
plaza
sophie
bills
##bar
##nik
fucking
mainland
server
seized
veterans
jerked
beta
radiation
stored
southeastern
nate
raced
designation
trunk
##low
qualification
judicial
reserves
##bed
woke
installation
abu
interface
concentrated
addressed
amanda
saxophone
monk
##bus
egg
defender
ce
outbreak
##bert
http
ski
enrolled
##ress
rookie
contracts
dissolved
challenged
meter
lt
##tha
hospitals
specialist
venezuela
shed
nursing
protestant
structural
jared
##ska
succession
exile
lebanon
wiped
resting
integration
preservation
pirates
sheep
capita
sailing
colonies
manuscript
clarke
functional
boxing
azerbaijan
nickname
rang
grid
earthquake
flashed
miguel
rushing
##ches
improvements
180
consumption
molecular
felix
societies
autonomous
receiver
delayed
militia
chairs
trump
canyon
##point
extending
##jan
stake
eyebrows
embassy
wellington
hannah
##ella
sony
bishops
cloth
contents
xi
commenced
1854
stanford
nashville
garrison
##bin
hamlet
clearing
rebels
literacy
cooking
temples
jenny
hasn
sixty
bastard
##art
newton
##ada
##ges
##ching
delaware
singers
##ets
assists
##ph
boulevard
planted
##ome
pursuit
##sia
posts
invitation
depot
rod
preston
chambers
descendants
montgomery
##lay
##ari
##ag
1855
sanctuary
fbi
##ions
programmes
unity
harper
tournaments
thunder
nebraska
linda
dale
cork
dome
panama
##yl
1858
tasks
experts
##ates
feeding
##las
##ida
##tu
##ax
quartet
melody
disbanded
sheffield
blocked
gasped
kisses
connects
##non
sts
poured
publishers
##we
guided
ellis
extinct
##ord
##bility
poll
clenched
##use
thereby
quantum
cdp
administered
semifinals
##du
##bu
##maker
roosevelt
plains
flowing
imprisoned
neighboring
airline
##ses
##view
##mate
##ec
gather
wolves
marathon
##ill
cruise
organisations
exhibitions
alarm
ratings
silently
##stein
colours
guidance
tactical
##rat
marshal
della
##ings
rested
feared
owns
advisor
##ides
farms
grants
##ene
##und
prague
suspension
permanently
pond
bombing
coup
##og
##lands
##book
priests
andrea
barn
jumping
##chen
##ologist
##con
auckland
serie
ba
##bel
trevor
consist
governing
collaborated
possessed
comprises
blew
shane
##ack
perceived
baronet
tune
missionary
350
threatening
shade
seminary
##master
estates
1856
manufacturers
##nic
mercury
syndrome
porter
##iya
##din
hamburg
upstairs
purse
widened
breathed
affiliate
santiago
prevented
celtic
125
recruited
farther
##mp
diet
au
##ert
##hon
vladimir
armies
##lie
##ify
##box
disorder
honours
northeastern
mia
crops
violet
threats
canton
southwestern
prototype
moderate
protocol
pistol
##eo
questioned
1852
math
authored
##ual
##san
1851
presidency
politicians
barrier
diana
tribal
palmer
sometime
chester
wu
bend
download
reforms
registration
##osa
consequently
monitoring
brandon
ps
eaten
ports
favourite
##itz
vermont
invisible
isle
##ator
relay
midfielder
actively
stefan
procedures
chains
libraries
essex
henri
slavery
##hal
coached
cassie
cats
##fi
announcement
2000s
vinyl
activated
marco
frontier
growled
curriculum
##das
leslie
kenny
##00
vii
stationed
friedrich
counted
##ulated
platinum
col
rubber
glen
1840
id
provisions
administrator
##oe
tributary
te
org
##uous
prestigious
examined
grammy
ronald
associations
bailey
allan
essays
flute
consultant
travelling
1853
kit
kerala
yugoslavia
methodist
##ith
burial
centres
##nda
discontinued
dock
stockholm
##nk
citing
manga
##ugh
mumbai
iraqi
robot
broadcasts
abolished
overhead
franz
reconnaissance
johann
acknowledged
drinks
alley
palestine
##nis
##aki
proceeded
recover
bradley
infection
nationalist
##ath
interchange
gen
amber
wishes
powell
doctrine
elbow
##bird
indonesian
##com
enzyme
kylie
manila
##ien
fever
monica
keyboard
##hood
searched
##bad
grande
##war
congo
##ification
##dia
si
##via
casey
1849
streak
syrian
sprint
pound
upcoming
##xi
##els
guild
motorcycle
liz
##zar
chiefs
elena
bye
absorbed
relatives
booth
##mal
citizenship
wilhelm
##ceae
##hed
noting
quarterback
hectares
##gue
##tal
parked
sustainable
stepping
twentieth
airfield
galaxy
nest
chip
##nell
tan
shaft
paulo
requirement
##zy
paradise
tobacco
trans
renewed
##cker
##ju
md
trips
colt
holder
butterfly
reformed
carriage
goodbye
interactive
enabled
##kan
facebook
superintendent
episcopal
giovanni
nineteenth
privately
circulation
##ovic
armstrong
permit
discrimination
##wi
aires
cottage
ni
##sta
horizon
jamaica
ripped
fernando
chapters
patron
lecturer
navigation
behaviour
genes
georgian
export
solomon
princeton
independently
sox
1847
hank
criteria
oakland
geographic
milwaukee
expanding
conquest
##tv
halt
brunswick
doi
arched
curtis
divorced
somerset
streams
zoo
curved
buenos
dictionary
vector
unions
punjab
segments
##lly
pastor
##stone
thighs
operators
abruptly
coin
compiled
associates
improving
migration
##ose
compact
##urs
quarterfinals
restore
oval
##cies
1846
flags
##del
##rated
neo
performer
##iel
restrictions
andrews
java
journals
arabia
dee
removing
hindi
casino
runway
civilians
nasa
##zation
refuge
retain
conferences
conducting
##tto
##tions
##tle
descended
massacre
##cal
ammunition
terrain
durham
cab
##bank
perth
##dal
##ule
moreover
particles
cardinals
tent
evaluation
##oid
inscription
##works
chloe
panels
trucks
##nation
cluster
sunlight
##wing
dialect
##ap
##ws
collecting
##mas
##can
##sville
quoted
evan
aria
cleaning
eva
closet
provision
##ez
ac
##gle
##ising
venues
flipped
cent
trustees
authorized
##sco
##ado
hesitated
topped
theoretical
repeat
peaceful
optical
width
copyright
##illa
investors
miranda
privacy
hugo
harmony
##pp
lynn
glared
nina
102
headquartered
diving
boarding
##ncy
albanian
marsh
dealt
enlisted
discovers
rebecca
capitol
visa
varied
indies
compensation
thursday
arsenal
westminster
suburbs
rid
anglican
##ridge
knots
foods
alumni
whoever
portal
##ray
gavin
instructor
flooding
##ale
interim
abby
##ile
newport
glenn
##cc
prompted
priority
bomber
360
breeze
henderson
richardson
relax
banner
palms
##rio
legends
cricketer
ordained
rifles
trigger
##uri
##away
sail
1830
sussex
indianapolis
avoided
1845
##ulation
inland
##tie
##nna
counsel
##una
eyebrow
bleeding
##dom
committees
accounting
heather
herald
codes
tore
scales
wagon
##oo
luxury
tin
fountain
convoy
dried
troy
accidentally
slam
smelled
joey
steep
bosnia
configuration
toll
brook
shrine
aggregate
##ima
nationally
holdings
consideration
enable
edgar
mo
##tein
relegation
atomic
hub
conjunction
reactions
currency
kumar
underwent
steering
comprising
melissa
chi
solve
trails
inhabited
elimination
huh
consent
layout
marines
##ces
hunters
##oma
hometown
##wall
##mont
reads
neighbouring
withdrawn
wingspan
anthology
lancashire
brands
##lyn
104
##ade
##ship
goalkeeper
##yne
groaned
burton
gerald
milton
sophia
fog
philosopher
cycling
gripped
larvae
garrett
specified
scotia
##kes
750
ferdinand
es
##shan
##orn
##gal
motors
##sburg
##brook
caps
ghana
stained
demo
mentions
beds
ap
afterward
##bling
utility
##iro
richards
1837
footsteps
cyprus
urged
developer
probability
olive
upgraded
gym
insects
1844
hydrogen
amazon
katie
poets
##pm
planes
##pan
jin
randy
warehouse
archived
investigations
alec
granite
mineral
carlo
##zu
stan
rhode
skirt
est
##berry
respected
##horn
limestone
nominee
memphis
grabbing
##als
aa
frankfurt
referendum
varies
disk
firms
unconscious
sue
##zhou
##cio
idaho
chad
computing
destroyer
103
kingston
carson
1800
whitney
maya
##une
freestyle
##bc
rovers
hiv
##ids
tristan
##hus
diploma
lied
thermal
auxiliary
iata
##tel
morocco
pounding
treasury
lithuania
1841
1812
geological
matching
stumbled
destroying
marched
brien
advances
belle
settling
measuring
##mie
tuesday
bassist
capabilities
stunned
fraud
##list
##phone
##ulate
lawsuit
healthcare
theorem
halls
aka
horizontal
vicinity
decrease
adoption
##ography
pakistani
##ole
##hall
heath
algorithm
integral
elliott
brigadier
tate
varieties
##cho
cigarette
specimens
##ree
##ensis
##inger
exploded
finalist
wilderness
nicknamed
onwards
manufacture
robertson
jets
tampa
enterprises
blog
loudly
composers
nominations
1838
malta
automobile
hosting
viii
rays
tilted
museums
euro
equality
cohen
poison
surrey
governed
moses
##esh
##room
vanished
##ito
barnes
istanbul
##iness
rotation
petition
janet
##logical
custody
observatory
surfaces
pinyin
canterbury
oslo
monks
ibm
photograph
continent
dorothy
allegations
explaining
stack
lance
majesty
dos
bradford
raven
voltage
pillow
fists
1842
interpreted
##car
1839
gage
telegraph
expelled
collector
zones
##min
nintendo
##kh
##bra
downstairs
chef
suspicious
afl
uganda
condemned
lutheran
estimates
decree
saxon
proximity
idiot
deposits
contrary
presenter
magnus
glacier
im
offense
edwin
##ori
upright
##long
##ois
##izes
xavier
windsor
plantation
occurring
equity
saskatchewan
drifted
vegetation
revolt
##stic
1843
opposing
nato
skating
1836
lease
##oc
##nne
flora
anxiety
ruby
##ological
##mia
tel
emmy
frost
compounds
foundations
rainfall
dominican
##win
armenia
##nte
calgary
106
marion
proclaimed
theodore
bells
courtyard
thigh
gonzalez
console
troop
##ence
##if
supporter
presbyterian
activists
carpet
##iers
rubbing
uprising
##yi
conceived
##cht
ji
rescued
cardiff
1835
rex
concentrate
senators
glowing
battalions
scouts
competitors
sculptor
catalogue
ion
raja
bicycle
##woman
gentleman
lighthouse
publish
predicted
##val
variants
##gne
##ui
winston
deceased
##nus
touchdowns
caleb
sinking
echoed
hon
hayes
magnitude
editors
##tine
estimate
##mel
backup
laying
zurich
##eau
ahmed
mit
treasurer
1832
biblical
agrees
imprisonment
plymouth
##hen
lou
##nen
antarctic
##tas
faction
##borough
lancaster
erik
lyon
##eon
bros
##ode
locality
tips
empress
crowned
chuckled
##ory
clara
towel
##fl
##day
##а
interviewed
##bal
##die
interactions
eden
cups
helena
##lf
beck
##fire
batteries
filipino
parted
##lam
##born
rows
albany
delegates
##ees
##sar
discussions
##ex
notre
instructed
belgrade
lauren
alexandria
salary
ludwig
alright
wagner
pockets
slovenia
hugged
brighton
merchants
stole
slopes
repairs
enrollment
promotional
boeing
##bb
isabella
naming
##и
bacteria
listing
separately
belfast
ussr
450
lithuanian
ribs
sphere
martinez
cock
proposals
fragments
nationals
##fs
##wski
premises
fin
1500
alpine
bounded
jace
##af
gaming
pier
##like
frances
flooded
##dle
frightened
pour
trainer
framed
wickets
##fold
infected
email
##pes
arose
##aw
ecuador
oblast
vale
ch
shuttle
##usa
bach
rankings
cornwall
accordance
salem
bruno
resolved
julius
iceland
bombardment
tide
contacts
##rah
concerto
macdonald
albania
implement
daisy
tapped
sudan
helmet
##lic
crop
##craft
##ute
##tsu
boxer
fr
adjusted
habit
supervision
soprano
##zen
regiments
disappear
lamp
performs
app
##gia
##oa
rabbit
digging
incidents
##cion
##oi
##ati
##fied
jill
backs
##iest
sponsor
convert
##aro
consensus
auction
artifacts
##bing
twitter
halifax
2019
allmusic
alexandra
viola
##los
##ille
manuscripts
##illo
ari
managers
monuments
blades
barracks
springfield
consolidated
electron
##end
airing
wheat
nobel
inclusion
payments
geography
bee
cc
eleanor
##hurst
afc
manitoba
##yu
su
lineup
fitness
recreational
investments
airborne
##dis
edmonton
##row
renovation
##cast
infant
bankruptcy
pavilion
##yer
withdrawal
##hy
discussing
agreements
rochester
##abad
bombers
220
rao
reverend
decreased
107
consulting
naples
crawford
tracy
ribbon
##lee
deciding
flagship
explorer
poles
sanchez
inspection
induced
exchanged
flee
locals
loading
hanna
##ela
salvador
flown
contestants
##ines
wanna
rhodes
fletcher
hector
knocking
##ough
mechanisms
sensed
##eus
renovated
madame
##cks
crews
##hin
##ben
##ato
armored
copa
caves
certification
froze
damp
tugged
wyoming
##rg
##ero
newman
##lor
graph
115
##ami
withdraw
meredith
moss
neighbors
raiders
republicans
kat
penny
criticised
##tch
freed
likewise
delegation
gotta
doll
nationality
resolve
convent
##mark
sharon
coordinator
entrepreneur
fold
##dine
councillor
synonym
cursed
1815
jonas
haired
sofa
keeper
##hart
rapper
speedway
postal
maxwell
estonia
recurring
##nn
##ave
##oni
cognitive
1834
##²
nadu
bce
ellie
##ations
ink
##tia
presumably
finite
staircase
108
noel
patricia
nacional
##cation
preventing
prussia
fossil
##logist
ernst
frog
perez
rene
##ace
prussian
##ios
##vy
molecules
regulatory
answering
opinions
sworn
upward
habitats
seating
ancestors
drank
yield
hd
synthesis
researcher
##var
peered
voluntary
homeland
##the
##igan
valve
luxembourg
alto
carroll
fe
receptor
ambulance
##tian
johnston
catholics
depicting
jointly
gloria
mentor
badge
ahmad
remarked
councils
detection
crowded
##10
cooperative
ankle
mercedes
dagger
surrendered
commit
subway
sculptures
provider
##fication
membrane
timothy
rectangular
fiscal
heating
teammate
basket
particle
deployment
##ple
missiles
courthouse
proportion
sec
##ller
forbes
blacks
sizes
autobiography
##awa
contestant
countryside
scorer
invaded
enclosed
hurling
disorders
##cu
reflecting
continuously
cruiser
graduates
freeway
investigated
ore
blocking
jorge
dove
variables
que
provisional
complained
##rm
tubes
georges
krishna
##uch
laps
arcade
sage
##table
shannon
seoul
hire
churchill
prohibited
savannah
##oli
##lessly
romans
mlb
measurement
kay
charleston
shattered
portsmouth
mandatory
stretching
cologne
seventy
cornell
webb
##ulating
americas
budapest
ava
suspicion
##ison
yo
##hai
jessie
rector
##az
1831
organize
loans
volcanic
warrant
summers
subfamily
newer
danced
rhine
heinrich
gastropod
sings
facilitate
easter
ra
positioned
fruits
yanked
imported
25th
velvet
vic
tribune
baldwin
neighbourhood
hay
pr
##uro
1814
##aria
qualifier
glare
highland
##cted
shells
eased
geometry
louder
slovakia
##sion
##iz
##lot
savings
prairie
##ques
tonnes
##lled
preceding
shy
##pot
bury
sherman
##eck
reinforced
bottles
contracted
duchess
outfit
##sc
mickey
##ase
geoffrey
archer
eliminate
##enberg
neal
##eth
stance
maple
retire
polo
simplified
##ht
1833
hid
backwards
jules
##oke
mt
rebounds
burma
santos
whispers
drained
subspecies
##aa
streaming
ulster
correspondence
gerard
##load
duchy
##oria
inaugurated
sovereign
thames
##hara
confederation
reservation
yankees
verses
ultra
commercially
salon
citation
winnipeg
allocated
cairo
##boy
jenkins
objectives
##wind
1820
portfolio
armoured
sectors
##eh
initiatives
##world
robe
ab
gazed
##tones
rulers
111
favorable
jerome
tended
cart
factories
##eri
diplomat
valued
gravel
##try
chang
shepherd
terrace
pdf
pupil
##ural
##rch
governors
##nberg
trailed
crest
tackle
##nian
##ats
##kai
ethiopia
detected
thomson
iso
successive
agnes
straightened
licence
sutton
112
##weight
branded
licked
silva
ricky
requests
##ents
greeted
##wald
lung
employer
strait
gaelic
##piece
sabha
##mba
driveway
harvest
bates
reluctantly
algebra
ira
240
picks
##air
designers
raids
##ean
leipzig
locks
screw
dressing
strand
##lings
dwarf
##nu
nods
##mine
differ
boris
##eur
yuan
flip
##gie
##ture
##sel
gameplay
blamed
illustrations
rehabilitation
##of
##zes
rumors
miners
leicester
kerry
##ico
ferguson
##fu
premiership
##cat
bengali
prof
remnants
##rily
presidents
baltic
sailors
dominic
##bie
##rick
bark
gymnasium
ashes
liver
toby
oath
providence
evangelical
nixon
cement
carnegie
embarked
hatch
pirate
##bee
hammond
projected
percy
twelfth
##ult
regent
doctoral
mikhail
##ichi
lu
realised
abortion
##fc
frown
nottingham
kirk
wa
minneapolis
##rra
module
algeria
mc
nautical
statues
availability
shirts
alma
brows
munster
mack
soup
crater
tornado
sanskrit
bordered
dixon
planets
exam
##bble
carriers
kidnapped
##vis
accommodation
emigrated
##met
correspondent
violation
lang
ancestry
pottery
spelling
obtaining
ki
1825
##20
buddhism
##ants
gazette
##nger
##sse
dental
eligibility
utc
averaged
zimbabwe
francesco
coloured
hissed
translator
mandate
humanities
mackenzie
uniforms
##iana
##gio
mhz
samantha
genera
wei
rim
shark
entities
indo
slipping
owing
abbot
sidney
##av
recommendations
squadrons
commanders
conquered
##oto
donations
diagnosed
##mond
divide
##iva
decoration
vernon
##kers
##power
herzegovina
protested
lateral
herman
accredited
mg
##gent
crow
crimson
##rine
livestock
##pped
humanitarian
oz
whip
##lene
##ali
legitimate
spelled
anxious
oriental
##nin
##hole
carnival
controller
detect
##ssa
bowed
educator
kosovo
macedonia
##sin
occupy
stephanie
janeiro
para
135
ranger
polar
rica
##eer
neill
##sman
##ip
doubled
1828
109
cooling
unveiled
##card
1829
nsw
homer
chapman
meyer
##gin
mae
expertise
##gled
darwin
brooke
sided
prosecution
investigating
comprised
petroleum
johns
vegetables
lounge
pension
beatles
amelia
cain
dubai
babe
click
##nder
pepper
mumbled
atlas
accessed
ballad
physicians
homeless
gestured
rpm
freak
louisville
corporations
patriots
prizes
rational
modes
decorative
din
##ort
monarch
##dorf
generals
guidelines
organs
##zon
parishes
cord
##kie
linux
deutsche
bavaria
##bia
coleman
cyclone
##eria
bacon
##yama
##old
hampton
diagnosis
1824
rita
disputed
##₃
pablo
##sch
marketed
trafficking
##ulus
formats
##oh
vault
##bourne
webster
##ox
highlights
##ient
##ann
modeling
##gated
bolivia
clergy
isabel
##nas
##ars
reunited
bra
##ancy
##rate
differential
transmitter
container
poker
##och
excessive
cowboys
##tum
augustus
providers
statute
retreated
balcony
reversed
storey
neighborhoods
wards
santo
ronnie
thread
venus
##dian
sandstone
daylight
gwen
analog
wwe
measurements
dec
toxic
##kel
surgical
economist
parameters
varsity
##sberg
quantity
ella
##chy
##rton
countess
diamonds
expressway
ga
##ı
1821
uruguay
galleries
expenses
scanned
colleague
outlets
lucien
##ila
##bon
syracuse
fangs
gown
##sie
toyota
missionaries
websites
##nsis
sentences
adviser
val
##plane
starter
##borg
toe
elliot
nobility
##wyn
cowboy
endorsed
gardner
persuaded
organisms
emissions
kazakhstan
##hand
llc
constantinople
systematic
guatemala
##hard
highlands
1810
##ifying
##ced
wong
enlarged
kindergarten
##ern
##rina
##most
consul
##nar
hyde
clarence
intensive
pinned
jung
clayton
ix
apostolic
230
transactions
##dge
exempt
cove
religions
##ash
shields
dairy
190
joyce
chassis
southampton
chat
interact
redesignated
##pen
nascar
salmon
regained
malaysian
constituted
delegate
tray
drift
striker
weakened
trinidad
itv
transmitted
ming
nodding
fitzgerald
narrowly
sp
standings
##₁
##wara
##cting
gloves
lid
##nel
hurting
conservatory
##pel
sinclair
reopened
nigerian
strode
advocated
optional
chronic
discharge
##rc
laurel
stella
shi
wage
128
informal
levi
buddha
villagers
##aka
heavier
summoned
gateway
eleventh
jewelry
translations
accordingly
##ency
fiber
pyramid
cubic
dragging
##ista
##ops
contacted
##dt
kai
lisbon
patted
1826
sacramento
theft
madagascar
subtropical
disputes
ta
holidays
piper
willow
mare
cane
itunes
benny
companions
raj
roar
plaque
tibetan
fossils
manning
tina
tanzania
##eda
##hir
swamp
deputies
ufc
metals
anthem
specially
##boat
dialects
nineteen
cecil
duet
disability
unofficial
##lies
defunct
eds
drainage
surname
honda
switching
conservatives
mammals
knox
broadcaster
sidewalk
##ried
benson
princes
peterson
##sal
bedford
eli
alberto
archaeology
lgbt
teaches
securities
waving
coordination
davidson
leased
eighty
jun
fernandez
sponsorship
reviewer
kingdoms
estonian
laboratories
##fy
##nal
verb
celebrations
##zzo
rowing
submit
mvp
##vas
explicitly
metric
mound
mohammad
mistakes
irregular
##hing
##ass
shipped
##enburg
termed
georg
bulls
abbreviated
appealed
##are
##atic
sicily
heel
spacecraft
monarchy
##tter
aberdeen
##ub
survivor
##aries
##makers
clarinet
chilean
karnataka
coordinates
1818
panties
##rst
pretending
ar
kiev
bella
113
catalog
telecommunications
portable
lindsay
vatican
##eim
stint
bolton
##rne
judy
wool
benedict
europa
imaging
##een
contributor
##nor
opted
stamps
apologize
financing
gideon
alignment
avery
chemicals
yearly
prominence
professionally
##ils
institutional
inception
identifying
tribunal
gains
##wo
papal
preference
linguistic
vince
brewery
##ont
##ured
##outs
1813
bi
##rr
##face
##rad
quarterly
asteroid
cleaned
radius
temper
##llen
telugu
jerk
viscount
##ote
##aya
yacht
baden
##rl
laptop
##gu
monetary
offshore
scots
##yang
##arian
upgrade
needle
xbox
lea
flank
fingertips
##pus
teachings
confirm
roth
winters
##iah
beverly
gambling
bonnie
##backs
regulated
clement
hermann
knot
##shing
##uring
##vre
specialty
inventor
bats
screened
unesco
midland
##ander
##rry
jess
feedback
##uma
chennai
heartbeat
overtime
pleaded
##sworth
mon
leisure
oclc
##tate
##ele
angelo
thirds
gill
commentator
##dos
darren
rides
gibraltar
##nc
##mu
dissolution
shin
meals
reds
chaired
taller
functioning
niece
robbie
suffolk
yugoslav
passport
constable
congressman
hastings
##rov
consecrated
ecclesiastical
##ovich
muller
nora
1822
1827
cumberland
ned
##flow
similarities
finishes
##ib
jade
##nse
##hot
mice
securing
helsinki
attributes
##gos
cousins
phases
gandhi
submission
vicar
spear
tasmania
constitute
##gus
terrestrial
matthews
##oka
philharmonic
##onic
1816
encoded
consortium
shifts
supervisor
inform
armour
emeritus
blink
mapping
##50
##ein
handball
##nta
substantially
thief
##own
carr
1793
ucla
metallic
damages
mk
commissioners
zach
default
##ther
helicopters
stems
spa
partnered
penalties
teresa
1801
sen
##tric
dalton
##wich
irving
##vey
dell
deaf
peters
excluded
unsure
##vable
patterson
crawled
##zio
resided
whipped
latvia
slower
ecole
pipes
employers
maharashtra
comparable
va
textile
##gel
alphabet
irrigation
chartered
choked
antoine
offs
supplement
##wen
quantities
demolition
locate
urdu
alt
114
##mc
andreas
##ava
classrooms
mw
publishes
valleys
guides
cubs
johannes
bryant
##itt
prosecutor
apology
lorenzo
beef
##onia
kidding
composite
natives
##ffer
emi
rockets
riverside
painters
adolf
##ail
uncertainty
hawks
meantime
builder
spray
regina
russians
##urg
determining
##tation
tram
1806
##quin
##12
1823
garion
rented
mister
terminated
clip
1817
depend
nervously
disco
defenders
shiva
shiny
worcester
##gation
##yr
trailing
undertook
islander
belarus
watershed
fuller
overlooking
utilized
1819
##nate
moaned
lamb
practicing
##erly
arrows
##graphy
witches
117
charted
rey
hut
subdivision
freshwater
giuseppe
aloud
qatar
marty
sideways
jude
prayers
mccarthy
softball
damien
##gging
##metric
erupted
lebanese
negro
revenues
tasted
comparative
teamed
transaction
maori
sovereignty
parkway
trauma
gran
malay
121
advancement
descendant
2020
inventory
##making
antarctica
mps
##gas
##bro
mohammed
myanmar
holt
submarines
##lman
locker
patriarch
bangkok
emerson
kin
norwich
advantages
##zel
rca
##hold
shortened
storms
aidan
##matic
autonomy
compliance
##quet
dudley
atp
##osis
1803
motto
documentation
christina
archdiocese
##dell
rs
meg
gus
leans
##ude
accompany
bergen
tomas
##iko
doom
wages
pools
##nch
##bes
scholarly
alison
brittany
##cut
##boro
competitor
##stan
pike
designing
washing
skiing
micro
auburn
halted
##hat
logistics
cycles
vowel
applicable
barrett
exclaimed
eurovision
ramon
##umi
##lls
modifications
##uck
torch
aviv
ensuring
sonic
outskirts
cu
pathway
##band
##gun
##lines
disciplines
acids
cadet
paired
##40
##sive
marriages
##⁺
folding
peers
slovak
admired
##beck
1880s
leopold
attained
weston
megan
horace
##ination
dorsal
evolutionary
##its
deity
lethal
brushing
deserted
institutes
coronation
luc
flicked
tanner
##nica
granddaughter
winding
##rna
constantine
gomez
##front
rudolf
anthropology
slate
##lio
astronomy
knelt
tracked
freezing
herb
##dium
wendy
deposit
wheeler
##bbled
##bor
batted
tire
presently
specification
daemon
nigel
##grave
merry
czechoslovakia
ng
roma
##sts
lambert
inheritance
sheikh
winchester
cries
##yle
nave
##iv
ko
retrieve
defining
irene
swore
1809
175
##gic
omaha
brotherhood
##rley
haiti
##ots
exeter
##ete
##zia
steele
pearson
210
elisabeth
trends
##ef
fritz
##rf
premium
bugs
calmly
viking
##birds
inserted
##ield
confronted
resign
##olo
cambodia
gabe
sauce
##kal
116
clusters
quarry
luna
##lers
##ister
affiliation
##ashi
panthers
libya
anita
strengthen
inscriptions
##cated
lace
sued
riots
##uted
mint
##eta
preparations
dub
challenger
##vich
cf
displaced
wicket
breaths
analyst
##lum
ag
automotive
axe
josef
newark
50th
##pal
flushed
mum
##ante
commodore
incomplete
warming
ceremonial
118
celebrating
eighteenth
cao
lima
medalist
snakes
##city
miniature
zagreb
barton
umbrella
automated
doubted
differs
cooled
georgetown
dresden
cooked
wyatt
rna
jacobs
carlton
madras
inning
##hia
spur
ip
malayalam
begged
osaka
escaping
charging
vista
##aj
bud
papa
communists
advocates
tri
##cent
peaking
necklace
montenegro
saxony
glances
stuttgart
curator
recruit
grocery
##tting
##fort
lotus
ancestor
##rand
succeeding
jupiter
1798
macedonian
##heads
hiking
1808
handing
fischer
##itive
node
##pies
papua
inclined
italia
pouring
motioned
grandma
jacksonville
corp
aluminum
##hausen
ordering
##foot
drawer
traders
##play
##kawa
resistant
wandering
fiona
teased
var
hardcore
jubilee
mercer
valencia
hale
kuwait
1811
##ises
##wr
##eed
tavern
gamma
122
johan
##uer
airways
amino
gil
##ury
vocational
domains
torres
##sp
generator
folklore
outcomes
##keeper
canberra
shooter
fl
beams
confrontation
##lling
##gram
feb
aligned
forestry
jax
motorway
##tos
coffin
##cott
stalin
1805
escorted
##nam
purchasing
veronica
additions
passive
straw
123
frequencies
1804
refugee
##iate
christie
clary
bulletin
crept
disposal
##rich
##zong
processor
crescent
##rol
nazis
aurora
##eng
dwelling
hauled
sponsors
toledo
mega
theatres
tessa
cerambycidae
turtle
cone
kara
rusty
greeks
mozart
cocked
##tro
shire
spit
freeze
##cos
inmates
nielsen
councillors
loaned
uncommon
omar
peasants
botanical
offspring
daniels
formations
1794
pioneers
sigma
licensing
##sus
wheelchair
1807
liquor
pratt
trustee
##uta
forewings
balloon
##zz
kilometre
camping
casually
teammates
nm
hassan
carrie
judged
vanessa
knives
selective
cnn
flowed
##lice
eclipse
stressed
eliza
mathematician
cease
##roy
commissions
browns
##ania
destroyers
meadow
##rius
minerals
##cial
downstream
gram
memoirs
baha
seymour
archie
midlands
edith
flynn
canceled
tiles
stabbed
boulder
amended
camden
mollusk
unreleased
yoga
550
ramp
shiver
##rose
coined
pioneering
qing
warwick
119
##rous
wandered
##inal
annexed
nov
30th
##ished
organizational
airplane
normandy
stoke
blessing
violations
chased
holders
shotgun
##ctic
reactor
##vik
tires
shores
fortified
mascot
constituencies
nc
columnist
productive
tibet
##rta
lineage
oct
tapes
cody
##gger
hansen
kashmir
triggered
##eva
solved
cliffs
##tree
resisted
anatomy
protesters
##iga
injection
mattress
excluding
##mbo
defenses
helpless
##elli
growl
liberals
atoms
##iff
apprentice
howe
swimmer
barber
promptly
sodium
def
arise
##oning
gloucester
corrected
erie
##ders
elders
evacuated
sylvia
compression
##yar
hartford
pose
backpack
reasoning
24th
wipe
millimetres
marcel
##oda
dodgers
albion
aerospace
oaks
1795
acknowledge
ashe
geology
disappearance
farewell
swollen
wimbledon
124
rue
1792
commemorate
experiencing
calcutta
intel
##court
fisheries
bloom
280
brake
##inus
gustav
hesitation
po
viral
beans
accidents
tunisia
antenna
spilled
consort
treatments
aye
perimeter
##gard
donation
migrated
banker
trout
##ously
##nova
rams
genome
troubles
##lets
##set
##ibility
##ret
higgins
exceed
vikings
##vie
##zan
muscular
##ste
defendant
##wal
ibrahim
fuselage
claudia
vfl
europeans
snails
interval
##garh
preparatory
statewide
tasked
lacrosse
viktor
##lation
angola
##hra
flint
patrons
stall
weekends
scrambled
nucleus
tehran
jenna
parsons
5000
##bles
precipitation
##gt
knuckles
clutched
1802
marrying
ecology
marx
accusations
declare
scars
kolkata
meadows
finalists
coordinate
orchestral
##tc
mirrors
260
arches
candle
##nick
incorporating
fond
basilica
owl
rituals
whispering
stirred
feud
tertiary
goat
whereby
ricardo
stripes
parachute
adjoining
synthesizer
##gren
intend
phi
beaver
partition
fellows
alexis
prohibition
carlisle
fraternity
##bre
cbc
aquatic
airports
supervised
spatial
##bic
##ams
colombian
dolphins
perkins
##lish
reprinted
unanimous
bounced
semester
paperback
coventry
##leigh
demonstrations
sensor
rotating
yan
##hler
arrange
soils
##idge
hyderabad
labs
##dr
brakes
grandchildren
##nde
negotiated
rover
ferrari
directorate
augusta
##rda
rican
ave
broadly
pastoral
repertoire
asserted
nordic
fiba
harley
middlesex
tumor
tempo
zack
lok
##rade
##nto
##ement
contractor
turin
##wl
##ool
repaired
simmons
astronomical
cr
lyric
1890s
lara
bred
angus
##ience
engineered
posed
##lk
hernandez
possessions
psychiatric
electorate
campuses
lava
alps
##ep
##ution
##date
physicist
##page
##ographic
##itis
reformation
sparhawk
320
complement
suppressed
jewel
##½
floated
##kas
##ische
inability
scanning
flour
safer
##lm
solving
curb
##stown
financially
gable
bees
expired
cassidy
dominion
1789
cupped
145
robbery
facto
amos
warden
tallest
ing
pounded
usd
declaring
gasoline
##aux
darkened
650
##mere
erection
gossip
risen
dial
##eu
pillars
##link
##tina
arabian
ashton
silicon
##ead
##lated
##wer
##hardt
fleming
firearms
ducked
circuits
blows
waterloo
##lina
atom
fireplace
cheshire
financed
activation
algorithms
##zzi
constituent
cherokee
platoon
vivian
whiskey
##late
##nga
##ake
porto
listeners
dominance
kendra
mona
chandler
factions
22nd
salisbury
##ido
##haus
intake
javier
illustrator
cockpit
burnett
##anda
receptors
hawkins
##lal
slavic
1799
jesuit
cameroon
tai
wax
lowering
hancock
sensing
bald
calcium
tablet
announcing
barack
shipyard
pharmaceutical
##uan
greenwich
medley
patches
wolfgang
pt
speeches
acquiring
exams
nikolai
##gg
hayden
kannada
##type
reilly
##pt
waitress
abdomen
pseudonym
pharmacy
paraguay
1796
clicked
##trom
archipelago
syndicated
##hman
lumber
clifford
lorraine
advent
rodney
brock
##ght
##used
##elia
cassette
chamberlain
mongolia
sensors
developmental
upstream
##eg
##alis
165
basque
seeded
interred
renewable
rhys
leapt
molecule
##ages
nord
shivered
23rd
arlington
sunrise
bays
blackburn
centimetres
##uded
shuddered
gm
orbital
##ppa
seals
##lton
strengthened
assisting
baghdad
batsman
mara
og
##cock
nathaniel
brennan
1776
confirmation
caucus
##worthy
markings
yemen
nobles
ku
catalan
sawyer
##fall
patents
braves
arranger
evacuation
persuade
penguin
cum
insufficient
townships
occupying
declining
plural
puppet
flanders
##yon
antwerp
taipei
hobart
jeep
observers
126
chaplain
bundle
##hine
hazel
flung
sol
excavations
stares
sh
bangalore
triangular
icelandic
intervals
turbine
##vers
songwriting
crafts
##igo
jasmine
ditch
rite
##ways
comply
wrestlers
basel
emirates
marian
rivera
##some
caution
networking
##atory
##tered
darted
genocide
replies
specializing
spokesman
unlocked
fading
concentrations
elijah
investigator
andhra
##uda
promotes
##rrell
announcer
##ame
##bby
lydia
132
residency
modification
##fest
##ast
alternatively
nat
lowe
##ented
pam
tile
concealed
abdullah
vengeance
##ided
zip
bologna
jennings
ninja
oversaw
zombies
pumping
batch
livingston
emerald
installations
1797
peel
nitrogen
rama
##fying
##star
schooling
responding
##ost
lime
casa
targeting
##rod
##uru
hemisphere
lester
##yard
occupies
2d
angrily
reorganized
##owing
courtney
##dd
##30
estadio
##ifies
dunn
##ying
checks
##combe
##о
##fly
blu
assessed
##flower
##ه
observing
sacked
spiders
kn
##tail
mu
nodes
prosperity
divisional
155
broncos
adjust
erosion
paolo
directory
snatched
humid
admiralty
screwed
gt
reddish
##nese
modules
trench
lamps
leah
competes
##nz
##form
transcription
##uc
isles
clutching
pga
cyclist
inflation
flats
##hian
stubborn
harriet
baba
disqualified
330
insect
wolfe
##fies
reinforcements
rocked
winked
bricks
##raj
pending
##xton
##hm
##uki
lena
gdp
##dley
kidney
##shu
##haw
##icus
guardians
m³
roared
habits
##wise
gp
uranium
punished
bundesliga
elise
dundee
partisan
pi
collectors
individually
behavioral
bucharest
ser
valerie
corporal
nutrition
proportional
##isa
##kis
pavement
##zie
##eld
sutherland
crouched
1775
##lp
suzuki
trades
operas
crosby
prayed
priory
rory
##urn
gujarat
##pu
walton
pasha
privilege
lennon
floods
thorne
waterfall
nipple
scouting
approve
##lov
minorities
voter
dwight
extensions
assure
privileges
rejoined
confessed
yell
investor
##uth
pagan
slumped
squares
##cle
##kins
bert
##aid
aston
urging
sweater
starr
yuri
williamson
commuter
mortar
selfish
exports
##jon
cds
##him
unfinished
##rre
mortgage
destinations
##nagar
canoe
solitary
buchanan
delays
magistrate
fk
##pling
##lier
##vier
##mouth
antique
1791
pius
rahman
reich
tub
zhou
smashed
galway
xii
honduras
discharged
dexter
##pf
lionel
129
debates
tiffany
volunteered
dom
dioxide
devi
sic
advertisements
colts
transferring
hanover
pac
##top
similarity
terra
occurrence
ant
##how
becky
capt
armament
richie
pal
##graph
mayo
##ssen
##bone
cara
serena
fcc
##dling
lafayette
jakarta
##ime
infamous
##lah
##park
kitty
crystals
separating
notices
ordnance
extinction
onset
cosmic
attachment
sammy
##bil
admits
bending
baritone
emmanuel
policeman
vaughan
denny
polytechnic
mohamed
burmese
nikki
genetics
homestead
postponed
metacritic
una
##sby
##bat
dissertation
##rial
##cian
curls
uncovered
disappearing
##hoe
prehistoric
turret
mutations
nonprofit
pits
monaco
##ي
##usion
dispatched
podium
##mir
uci
##uation
133
fortifications
birthplace
##lby
##oll
preacher
rack
goodman
##rman
##ott
jaime
recorder
lexington
persecution
wagons
##11
##holder
decorations
##lake
abundance
£1
##rp
jeanne
beetles
peasant
##sl
caste
sergei
##rer
##ema
##ively
rub
satellites
##vor
inscribed
verlag
scrapped
gale
slogan
kathleen
arabs
##culture
choral
##tead
rand
bushes
dane
closes
##oth
slaughter
hague
krakow
lawson
tailed
elias
ginger
##ttes
canopy
rebuilding
##hof
frowning
brigades
rebuild
polls
td
rowan
audition
bowie
harp
dillon
##oro
renault
##tics
ropes
##α
presumed
infrared
wiping
accelerated
illustration
##rid
badminton
##iard
detained
##tera
recognizing
relates
##sies
##tly
reproduction
potatoes
thornton
hbo
##aan
bullshit
ernie
rupert
##jin
##iss
##ear
rfc
nassau
##dock
socialism
##haven
appointments
prestige
sharma
##tical
solidarity
gps
##ook
##rata
igor
##uit
baxter
tenants
wires
medication
diabetes
##rama
sasha
pas
extraction
131
##bilities
sonata
hunted
sixteenth
chu
planting
quote
mayer
pretended
abs
spat
##hua
ceramic
##cci
pigs
pitching
##dad
latvian
sore
dayton
##sted
##qi
patrols
playground
##nted
shone
stool
mates
treason
##ija
##liga
##croft
somalia
laurent
mir
leonardo
oracle
grape
obliged
chevrolet
thirteenth
##ede
accounted
currents
basil
##kovic
drought
##rica
##aire
shove
posting
##shed
pilgrimage
packing
fry
smells
144
newest
clung
neighbours
sanctioned
##pie
##stock
##mma
hydraulic
##vil
hiring
lilly
investigators
##ncies
##eous
compulsory
packet
##rion
##graphic
##elle
##inate
##rit
theresa
##tled
conway
saturn
##xia
corresponds
royce
jasper
explosives
packaging
aluminium
##ttered
denotes
rhythmic
spans
assignments
hereditary
outlined
originating
sundays
reissued
greeting
beatrice
##dic
pillar
marcos
handbook
alcoholic
judiciary
extract
blur
##eum
##force
trembled
owens
omega
signaling
socks
reacted
attic
theo
lining
angie
primera
talbot
##key
1200
ti
billed
##hey
deacon
eduardo
identifies
proposition
gunner
hogan
##yam
##pping
##hol
ja
##chan
jensen
reconstructed
##berger
clearance
darius
##nier
abe
dei
circled
notation
fascist
neville
exceeded
upwards
viable
ducks
##fo
workforce
racer
limiting
shri
##lson
1600
kerr
moths
locking
##cture
gal
fearing
accreditation
aide
1870s
mountainous
##baum
melt
##ures
motel
servers
soda
##mb
herd
##nium
erect
hum
peggy
examinations
gould
testified
geoff
ren
devised
sacks
##law
posters
grunted
cesar
tutor
ec
gerry
byrne
falcons
combinations
ct
incoming
rocking
26th
flared
uttar
loch
stroking
exposing
##hd
ancestral
instituted
##has
noises
prophecy
taxation
eminent
pol
##bol
dart
indirect
multimedia
notebook
upside
displaying
referenced
geometric
##iving
##ddy
blunt
announce
##far
implementing
##lav
aggression
liaison
headache
plantations
gorge
dots
thickness
averaging
precursor
137
fowler
symmetry
thee
225
##rai
ads
butcher
bowler
##lip
cigarettes
subscription
##ically
browne
##hos
##tech
kyoto
donor
##erty
damaging
friction
drifting
expeditions
prostitution
152
fauna
blankets
tossing
snarled
recruits
investigative
coated
healed
138
hai
xiii
academics
boone
psychologist
lahore
stephens
mba
foreigners
printer
##pc
ached
27th
deed
scratched
##pole
1780
okinawa
proto
commando
electrons
##base
replica
thanksgiving
##rist
sheila
stafford
representations
hercules
##path
##iated
kidnapping
lenses
##tling
samoa
mouths
computational
granting
razor
fixture
ideals
aiden
nominal
##vs
issuing
julio
pitt
ramsey
docks
##oss
exhaust
##owed
bavarian
draped
anterior
mating
ethiopian
##nton
endowment
cartridge
paternal
sleeves
interfere
deadline
##rail
jenks
bulldogs
justified
reproductive
nam
seize
descending
secretariat
kirby
coupe
grouped
panther
sedan
##18
##eter
##fan
##sdale
suzanne
##ility
horsepower
##lda
cautiously
luigi
##mans
##fields
noun
mao
governorate
kira
##avia
westward
##take
misty
sustainability
134
unused
##rating
packs
toast
unwilling
regulate
thy
suffrage
nile
assam
travelers
affordable
##rb
conferred
sells
undefeated
beneficial
torso
basal
remixes
##pass
bahrain
cables
fang
##itated
excavated
numbering
statutory
##rey
deluxe
##lian
forested
ramirez
derbyshire
slamming
transfers
astronomer
banana
histories
bamboo
##uchi
posterior
bowls
##thi
thou
tensed
offence
##inas
meyrick
callum
ridden
watt
langdon
tying
lowland
snorted
truman
##hale
##girl
aura
filing
weighing
goa
infections
philanthropist
saunders
##owski
latitude
reviewing
mets
commandant
radial
##kha
flashlight
reliability
koch
vowels
amazed
ada
elaine
supper
##rth
##encies
predator
soviets
cola
##boards
##nah
compartment
crooked
fourteenth
##ctive
havana
steelers
profitable
ambush
exited
packers
##tile
nude
fungi
##е
trousers
josie
shelby
frederic
##ος
constellation
baton
discs
##nco
lent
staging
grandpa
##tron
sk
adverse
elle
economically
##moto
mccartney
thor
dismissal
nostrils
##pace
squeezing
evidently
1783
venezuelan
je
marguerite
beirut
takeover
shareholders
##vent
denise
digit
airplay
norse
##bbling
pills
blaze
vacated
eliminating
##ello
vine
mansfield
##tty
borne
bail
forensic
##nett
##witz
desktop
citadel
promotions
worrying
dorset
ieee
subdivided
##iating
manned
expeditionary
synod
185
##rz
##ffin
functionality
karachi
litigation
meanings
uc
turbo
anders
##ffed
execute
curl
oppose
ankles
typhoon
##د
##ache
##asia
linguistics
pressures
grazing
##iting
immunity
136
namibia
francesca
monitors
tuition
##ии
vegetable
##mates
##quent
jen
complexes
forts
##ond
cellar
bites
seventeenth
flemish
failures
mast
charities
##cular
peruvian
capitals
macmillan
ipswich
frigate
postgraduate
employing
##ouse
concurrently
##tai
contingent
nightmares
nicaragua
##kowski
mal
fielding
gig
reject
##pad
harding
##ipe
coastline
##cin
##nos
beethoven
humphrey
##tam
##nge
norris
solicitor
huang
obey
141
##lc
niagara
##tton
shelves
aug
bourbon
curry
nightclub
specifications
hilton
##ndo
centennial
dispersed
neglected
briggs
sm
font
kuala
plc
##nstein
##bound
##aking
##burgh
awaiting
pronunciation
##bbed
##quest
optimal
zhu
raped
greens
presided
brenda
##life
venetian
marxist
turnout
##lius
braced
sins
grasped
sunderland
nickel
speculated
lowell
cyrillic
communism
fundraising
colonists
mutant
usc
##mos
##run
mural
##lous
chemist
wi
28th
tess
pietro
##ingen
promoter
ri
microphone
honoured
rai
sant
##qui
feather
##nson
burlington
kurdish
deborah
sickness
##wed
##eet
hazard
irritated
##rik
jewels
xv
##gged
##ows
##cup
berkshire
unfair
orchid
winced
renovations
obe
infinity
##nies
adapt
redevelopment
thanked
registry
olga
domingo
tudor
ole
##atus
behaviors
##ais
probable
stirling
wigan
##bian
paralympics
panting
surpassed
##rew
luca
barred
##sters
cassandra
waiter
carolyn
exported
##orted
andres
vacancy
suv
##glass
1788
yep
belarusian
sprang
##forth
##mis
administrators
rotterdam
zambia
boiler
##ride
##physics
lucius
outreach
spoon
##frame
qualifications
unanimously
regency
##iidae
stade
veterinary
rodgers
dump
alain
chestnut
castile
censorship
rumble
gibbs
##itor
communion
reggae
inactivated
logs
##houses
##iano
ale
informs
##cas
phrases
plaster
linebacker
kaiser
fascinated
850
limerick
recruitment
forge
mastered
##nding
leinster
threaten
##strom
borneo
##hes
suggestions
scholarships
propeller
patronage
coats
constructing
neurons
comet
entirety
shouts
identities
wary
##antly
##ogy
oversight
##kos
phillies
replay
constance
##kka
##acy
smithsonian
##chel
guerrilla
cadets
##plate
audit
##aru
cracking
joanna
louisa
##lights
##iri
nwa
australians
tong
bunker
specialists
nichols
railing
leaked
pedal
##uka
shrub
roofs
v8
captains
neural
##ntal
##jet
emission
medina
codex
sid
abolition
intensified
stocks
enrique
genoa
oxide
##written
clues
cha
##gers
tributaries
venom
##rity
##ente
##sca
muffled
sire
laos
##ingly
##hana
surfaced
motive
##oft
contests
approximate
mesa
luckily
dinosaur
accord
relieve
tow
masks
##ues
cynthia
##mmer
rains
bartender
zinc
lois
##sai
rafe
rosie
blockade
inlet
lagoon
copied
drilling
shelley
petals
##inian
mandarin
obsolete
##inated
onward
productivity
cindy
praising
busch
discusses
raleigh
shortage
ranged
stanton
encouragement
firstly
conceded
overs
##uke
cbe
##bos
certainty
pumps
##pton
##uli
lizzie
periodic
thieves
weaker
##night
gases
shoving
wc
##chemical
prompting
weights
##kill
flanked
hu
tuberculosis
##eb
##eal
christchurch
resembled
pictured
fixing
giggled
heirs
hairy
mechanic
torque
apache
obsessed
cheng
logging
##tag
extracted
##vsky
gloucestershire
##bay
unite
##lit
breeds
diminished
glove
1860s
##ن
##ug
focal
freelance
sliced
##yk
organism
##ril
lever
leningrad
interpretations
anytime
alicia
##ech
inhaled
xiv
bernie
licenses
northampton
exclusion
induction
monasteries
racecourse
##right
##sfield
##rky
dimitri
ions
commentators
objected
hospitality
stephan
warships
peripheral
wrinkled
departing
numerical
spokesperson
##zone
johannesburg
killers
##udge
abigail
bloc
##vel
##lain
xu
recipients
##jk
merlin
##writer
seniors
prisons
blinking
hindwings
flickered
kappa
##hel
80s
strengthening
brewing
gypsy
mali
lashes
hulk
harassment
treaties
instrumentation
troupe
mantle
##ffe
ins
##vn
dividing
verbs
##onal
coconut
senegal
340
momentarily
##sto
cocaine
panicked
##turing
teatro
captained
mans
##hawks
##code
wakefield
##16
cyril
##wu
amendments
##bahn
consultation
reflections
1787
internally
##ovo
tex
mosaic
distribute
paddy
143
##hic
piers
##15
##mura
##verse
popularly
sentinel
mccoy
##anza
covenant
##bag
verge
suppress
##jar
swansea
##60
142
##ndi
stiffened
dorian
##uf
damascus
amor
ida
##aga
porsche
dir
##had
##azi
stony
lexi
melodies
##nko
angular
integer
podcast
jaws
##olved
josephine
##nr
##ressed
customary
gala
cyrus
backyard
ariel
physiology
greenland
html
stir
atletico
ked
##lent
mas
catholicism
townsend
branding
quincy
containers
1777
ashore
aragon
##19
forearm
poisoning
##sd
adopting
grinding
amnesty
keller
finances
lankan
##uto
guam
bosnian
protector
##dog
allocation
intently
willy
##sten
bodyguard
electro
brighter
##ν
bihar
##chev
lasts
opener
amphibious
sal
verde
arte
##cope
captivity
vocabulary
##tted
agreeing
desmond
pioneered
##chus
strap
campaigned
railroads
##ович
emblem
##dre
stormed
501
##ulous
marijuana
northumberland
##gn
##nath
bowen
landmarks
beaumont
##qua
danube
##bler
attorneys
th
ge
flyers
cass
mutation
acc
##0s
colombo
motif
sampling
concluding
syndicate
##rell
neon
stables
ds
warnings
wilkinson
##tated
merrill
leopard
exhaled
emil
sonia
ezra
discrete
stove
farrell
fifteenth
##rier
worms
wren
##duction
##hc
expo
##rator
hq
unfamiliar
antony
acceleration
mari
ign
clifton
davenport
mozambique
##np
pierced
##evich
##wig
##cate
##iling
crusade
ware
##uel
enzymes
mls
##coe
mater
bunny
eliot
kernel
##fin
headmaster
torah
aden
pins
waived
##care
##yas
joao
substrate
enforce
##grad
##ules
alvarez
selections
epidemic
##bit
bremen
translates
ensured
waterfront
29th
manny
malone
reigning
cookies
absorption
205
engraved
##ffy
evaluated
1778
haze
##abe
thorn
##rift
##imo
##pop
fatigue
##tr
201
wurttemberg
##orf
proprietary
gb
syllable
ascent
lars
tractor
merchandise
rep
defendants
##yre
huntington
##ground
##oko
##hor
##hima
assassinated
nu
rainy
##uga
secondly
ios
parameter
##mity
bordeaux
punish
ridges
exodus
hesitate
debbie
savoy
nagar
organist
##tium
hesse
marin
converting
##iver
diagram
propulsion
pu
validity
reverted
supportive
##dc
ministries
clans
responds
proclamation
##inae
##ø
##rea
ein
pleading
sf
birch
strauss
##dh
brandenburg
rd
##ob
1900s
killings
antiquity
wharf
embarrassing
farmland
inequality
centred
signatures
fallon
370
##ingham
##uts
ceylon
gazing
directive
laurie
##tern
globally
##uated
##dent
allah
excavation
##cross
148
frantically
icc
utilize
determines
respiratory
receptions
##dicate
merging
chandra
seine
147
builders
diagnostic
dev
visibility
goddamn
analyses
dhaka
chancel
concurrent
pumped
1850s
turtles
jaguar
spinal
traction
declan
vows
1784
glowed
install
universidad
##lder
##oat
soloist
##genic
##oor
nissan
caucasus
##eno
pigeon
##itating
conclude
salad
jew
##gr
toni
##wc
harmonica
151
##gins
##etic
##coat
fishermen
intending
##wave
klaus
titan
wembley
40th
incorrect
jp
cooke
utilities
##etta
##print
principally
granada
lana
##rak
openings
concord
##bl
bethany
connie
sega
##mons
##nard
earnings
##kara
##cine
wii
communes
##rel
composing
softened
severed
grapes
##17
nguyen
analyzed
hubbard
heavenly
slovenian
##hit
##ony
trance
caldwell
skye
unrest
coward
likelihood
##aging
bern
taliban
honolulu
propose
##wang
1700
browser
imagining
cobra
dukes
instinctively
##ores
accessories
gradual
##amp
quotes
sioux
##dating
undertake
intercepted
139
fungus
tombs
haley
imposing
degradation
lincolnshire
retailers
wetlands
tulsa
distributor
dungeon
nun
greenhouse
atlantis
aft
exits
oman
dresser
lyons
##sti
joking
eddy
judgement
digits
##cts
##game
juniors
##rae
cents
une
##ngo
wizards
weir
breton
nan
technician
fibers
royalty
##cca
154
persia
##rable
##unt
vance
cafeteria
booker
camille
warmer
##static
cavern
foyer
graveyard
maj
plunged
##wear
ordinance
##nov
boyle
##lana
rockefeller
banjo
izzy
##ense
vines
##32
##eman
chromosome
dwellings
feudal
mole
153
catalonia
relics
tenant
mandated
##fm
fridge
hats
patented
raul
cruisers
accusing
chatham
contractors
hc
osborne
piston
156
##rana
lagos
##zal
peering
##nay
dealers
protocols
subset
prospects
##cre
artery
##zers
insignia
nuns
##eration
schwartz
berger
cromwell
##ctor
clasped
##bine
marseille
twitched
https
moldova
italians
##tist
wee
##oured
##nti
wwf
nope
##piration
##asa
167
##nza
coca
1781
cheating
##ption
sensory
heidelberg
dangers
semifinal
202
bohemia
whitish
shipbuilding
surgeons
landings
ravi
baku
moor
suffix
alejandro
##yana
litre
upheld
##unk
rajasthan
##rek
insists
posture
etienne
favoured
appoint
transgender
elephants
poked
greenwood
defences
fulfilled
militant
somali
1758
##ucci
migrants
wink
assistants
nos
restriction
niger
##ario
colon
shaun
##sat
daphne
##erated
swam
congregations
reprise
considerations
magnet
playable
xvi
##р
overthrow
tobias
knob
chavez
coding
##mers
propped
katrina
orient
##suke
temperate
##pool
farmhouse
##vd
committing
##vert
forthcoming
strawberry
joaquin
macau
ponds
siberia
##cellular
chant
contributors
##nant
##ologists
sped
1782
spared
##hore
barbados
karate
opus
originates
saul
##xie
leaped
##rock
correlation
weekday
unification
tracing
brig
afb
pathways
##ners
mod
mb
kneeling
##stad
##guchi
100th
pune
##thy
decreasing
168
miriam
academia
ecosystem
rbi
##lem
rift
##14
rotary
incorporation
generators
guerrero
##omy
derivatives
culminated
allie
panzer
sainte
wikipedia
pops
zu
austro
##vate
algerian
politely
educate
tastes
dartmouth
##gating
db
##jee
regan
differing
divinity
##media
pledged
routing
gregor
madeline
##idal
##hora
culminating
fined
liang
lam
programmed
gabrielle
##gna
cancellation
flexibility
##lining
accession
shea
stronghold
nets
specializes
##rgan
hasan
sgt
ling
##₄
admiration
##ark
photographers
specialised
tilt
hmm
perfume
380
sami
garland
botany
guarding
greet
russo
supplier
wilmington
vijay
##bius
paralympic
grumbled
paige
faa
licking
hurricanes
##gong
##uz
counseling
weigh
##sian
wiltshire
edison
##not
fulton
tramway
redesigned
staffordshire
cache
watkins
sleepy
candidacy
##group
timeline
##bid
##sos
berth
uzbekistan
vanderbilt
bothering
overturned
ballots
##iger
sunglasses
subscribers
hooker
ang
saloon
##rdi
carla
##vision
coil
##oids
vendors
31st
mackay
deities
overlooked
ambient
bahamas
felipe
whirled
botanist
tugging
##dden
disciples
morales
unionist
rites
foley
morse
##₀
soo
##sz
bargain
highness
turnpike
tory
reorganization
##cer
biographer
##walk
unopposed
##gles
institut
emile
kapoor
##dam
kilkenny
cortex
##13
romanesque
jain
shan
cannons
##ood
##ske
petrol
echoing
amalgamated
disappears
cautious
sanctions
trenton
##ر
flotilla
aus
tor
canary
cote
theirs
##hun
deleted
paso
elf
honourable
hutchinson
##eiro
##outh
##zin
surveyor
tee
wooded
reissue
##ono
cobb
shelters
newsletter
hanson
brace
encoding
confiscated
dem
caravan
marino
scroll
melodic
imam
##adi
##aneous
northward
biodiversity
cora
310
roaring
##bers
connell
theologian
halo
compose
unmarried
dynamo
##oot
az
calculation
toulouse
humour
nr
tam
undergone
martyr
myths
whore
counselor
290
heavens
battleship
electromagnetic
##bbs
establishments
presley
hopped
##chin
90s
wills
nas
##yuan
nhs
##nya
seminars
##yev
asher
lex
indicator
sikh
tobago
cites
goin
##yte
##gies
characterised
correspond
lure
participates
##vid
eruption
skate
1785
canals
defaulted
sac
460
petit
##zzled
virgil
leak
ravens
256
##yx
dams
##rington
fae
bounty
##arium
joachim
##ota
##iser
aforementioned
axle
snout
depended
dismantled
reuben
480
##ibly
gallagher
##lau
##pd
##ieu
##iary
inflicted
objections
##llar
asa
gritted
##athy
jericho
##sea
##was
underside
ceramics
substituted
195
eastward
wheeled
##iche
guinness
cb
##ager
siding
##bell
traitor
baptiste
inauguration
149
tipperary
choreographer
perched
stationary
eco
##ike
##ntes
bacterial
##aurus
flores
phosphate
##core
attacker
alvin
intersects
a1
indirectly
immigrated
businessmen
cornelius
valves
ul
nationale
monastic
applicants
##jack
161
constitutes
cpu
##osh
jurisdictions
sd
tuning
irritation
##uddin
gao
##erie
antagonist
glacial
hides
boarded
denominations
interception
##jas
cookie
nicola
##tee
algebraic
marquess
bahn
parole
buyers
bait
turbines
paperwork
natasha
renee
oceans
purchases
157
vaccine
215
##tock
fixtures
playhouse
integrate
jai
oswald
##cky
booked
nests
mortimer
##isi
sept
##gler
##sum
440
simultaneous
squinted
##shin
collects
oven
shankar
##я
luggage
spectral
1786
collaborations
louie
consolidation
##ailed
##ivating
420
hoover
blackpool
harness
ignition
vest
tails
belmont
mongol
skinner
##nae
mage
derry
##tism
##unce
stevie
transitional
##rdy
redskins
prep
prospective
##21
oversee
##loaded
##books
##iki
announces
fda
scowled
prasad
tucson
##vale
revue
1772
aristotle
salvatore
habsburg
##geny
dal
natal
nut
pod
chewing
darts
moroccan
walkover
lenin
punjabi
##ße
grossed
scattering
wired
invasive
hui
polynomial
corridors
wakes
gina
##cratic
arid
retreating
erich
sniper
##dha
linen
lindsey
maneuver
butch
shutting
socio
bounce
commemorative
postseason
jeremiah
pines
275
beads
bp
abbas
furnace
bidding
consulted
assaulted
empirical
rubble
enclosure
sob
cancel
polly
##emann
curly
prediction
vhs
sails
barked
grayson
riga
sloane
##yah
herbs
##athlon
alloy
imminent
assumptions
##itate
##ited
bathing
remixed
prefix
##emia
##tier
##eis
balkan
frogs
##rong
slab
##pate
peterborough
grains
imports
dickinson
rwanda
##atics
1774
dirk
tablets
##rove
##rice
caretaker
hostilities
mclean
##gre
regimental
treasures
norms
impose
tsar
tango
variously
192
recognise
arrests
1779
celestial
pulitzer
##dus
bing
##moor
adele
##rite
confronts
##izer
harmful
entrepreneurs
buyer
##ope
rugged
conner
circulated
uae
eaton
##gra
##zzle
lockheed
vishnu
reelection
alonso
##oom
joints
yankee
headline
cooperate
heinz
laureate
invading
##sford
scandinavian
##dham
hugging
vitamin
micah
hind
trader
##sper
##ndra
militants
poisoned
ratified
remark
campeonato
deprived
prop
##dong
outlook
##tani
##rix
##eye
chiang
darcy
##oping
mandolin
statesman
babylon
182
walled
forgetting
afro
##cap
158
giorgio
buffer
##polis
planetary
##gis
overlap
terminals
centenary
##bir
arising
manipulate
1770
ak
##tad
chrysler
mapped
moose
pomeranian
quad
macarthur
assemblies
shoreline
stratford
##rted
##evic
imp
##rita
##sque
accustomed
supplying
tents
vogue
sipped
filters
khz
selecting
luftwaffe
mcmahon
tyne
carriages
collided
dunes
exercised
flare
remembers
muzzle
##mobile
##rson
burgess
lunged
middleton
boycott
bilateral
##sity
hazardous
lumpur
multiplayer
jackets
liege
porcelain
rag
waterford
benz
battling
ottomans
kensington
hymns
cheyenne
lattice
levine
polymer
clashes
michaels
monitored
commitments
denounced
##25
##von
cavity
##oney
##holders
futures
cornish
patty
##oned
illegally
dolphin
##lag
yellowish
maddie
apologized
luton
##puram
nana
##rds
fanny
łodz
##rino
psi
suspicions
hanged
##eding
initiate
charlton
##por
nak
235
wardrobe
reservations
##rma
sect
162
fairfax
hedge
piled
buckingham
bauer
snyder
interpret
accountability
donors
byrd
continents
##cite
##max
disciple
hr
jamaican
ping
nominees
##uss
mongolian
eagerly
pillows
revolver
sulfur
clinics
moran
##enko
ile
katy
##icated
chronology
##hrer
elongated
mughal
pascal
profiles
vibration
databases
domination
##fare
##rant
matthias
rehearsal
polling
weiss
initiation
reeves
clinging
flourished
ngo
##hoff
##ume
buckley
symposium
weed
emphasize
transforming
##taking
##gence
##yman
flicker
foil
priesthood
voluntarily
decreases
##80
##hya
slater
sv
mcgill
##lde
moreno
##iu
besieged
zur
robes
##phic
api
deported
peyton
earthquakes
##ares
nationalists
beau
clair
brethren
interrupt
welch
curated
galerie
requesting
164
##ested
impending
steward
viper
##vina
brandy
foam
nl
1660
##cake
alessandro
##lim
attribute
clit
reggie
##cards
smoothed
whales
##cene
adler
countered
duffy
disciplinary
widening
conducts
goats
gradient
##shaw
matilda
quasi
striped
meridian
cannabis
cordoba
certificates
##agh
##tering
hangs
pilgrims
repeats
##ych
revive
etat
##hawk
belts
##hang
mauritius
##cki
arbitration
entrusted
advise
sniffed
seminar
donnell
processors
principality
strapped
celia
mendoza
everton
fortunes
reassigned
steamer
##lund
##ffen
dans
375
envisioned
slit
##xy
baseman
liberia
##weed
electrified
periodically
potassium
stride
contexts
sperm
slade
mariners
influx
bianca
subcommittee
##rane
spilling
icao
estuary
##nock
iphone
##ulata
isa
bohemian
dessert
##sbury
welcoming
proudly
slowing
##chs
musee
ascension
russ
##vian
##psy
africans
##morphic
gov
crab
peck
##ull
entrances
marketplace
groom
bolted
metabolism
patton
robbins
courier
payload
##ifier
andes
refrigerator
##pr
ornate
##uca
illegitimate
masonry
strasbourg
adobe
##³
apples
bakery
corpses
##cliffe
##sser
##ards
177
centimeters
centro
fuscous
cretaceous
rancho
##yde
telecom
tottenham
oasis
ordination
corey
cp
penguins
sims
##pis
malawi
##48
correction
##cked
##ffle
##ryn
countdown
detectives
psychiatrist
dinosaurs
blouse
##get
choi
vowed
##oz
randomly
##pol
49ers
scrub
blanche
bruins
dusseldorf
##using
unwanted
##ums
212
dominique
elevations
headlights
om
laguna
##oga
1750
famously
ignorance
shrewsbury
##aine
ajax
breuning
che
confederacy
greco
overhaul
##screen
paz
disagreement
phoebe
shifter
hovered
viruses
##wes
##lined
##gc
landlord
squirrel
dashed
##ι
ornamental
wally
grange
spurs
undisclosed
proceeding
yin
##text
billie
orphan
spanned
indy
presentations
lucian
##tary
vaughn
hindus
##anga
##hell
171
daytona
protects
rematch
tandem
##oya
rebranded
impaired
hee
peach
diaspora
ethnicity
prosperous
gleaming
dar
grossing
playback
##rden
pistols
##tain
births
labelled
##cating
172
alba
##onne
aquarium
hostility
##gb
##tase
sumatra
lakers
consonant
demos
capsule
zeke
expulsion
pueblo
##comb
trait
##ddin
##neck
##yna
depart
gregg
mold
ledge
hangar
oldham
termination
analysts
gmbh
##itic
insist
cradle
filthy
brightness
slash
deposed
##truct
isis
microwave
tumbled
sheltered
cathy
werewolves
andersen
convex
clapped
clinched
edo
vc
rufus
##jak
mont
##etti
poznan
##keeping
restructuring
transverse
##rland
azerbaijani
slovene
roommate
choking
##quist
vanguard
##hiro
disagreed
baptism
##lich
coliseum
##aceae
societe
cory
locke
relocation
versailles
ahl
swelling
##elo
cheerful
##word
##edes
gin
sarajevo
obstacle
diverted
##nac
messed
thoroughbred
fluttered
utrecht
chewed
acquaintance
dispatch
mirza
##wart
nike
salzburg
swell
yen
##gee
idle
ligue
samson
##nds
##igh
##cise
##case
burgundy
##bot
skeptical
interceptions
marathi
##dies
bedrooms
aroused
pinch
##lik
preferences
buster
projecting
rust
##ital
priorities
addison
pseudo
##guard
dusk
icons
##psis
##iba
bt
##lift
##xt
ju
truce
rink
##dah
##wy
defects
psychiatry
offences
calculate
##iful
##rized
##unda
francaise
##hari
richest
warwickshire
carly
1763
##cious
bruises
aero
carving
##name
preface
terminology
invade
##int
blurred
##iled
rossi
foothills
ballads
cecilia
affiliates
blasted
conditional
minors
drone
rudolph
buffy
swallowing
attested
##hop
rutherford
howell
primetime
livery
penal
##bis
minimize
hydro
wrecked
palazzo
##gling
cans
vernacular
nobleman
shale
walnut
danielle
##ection
##tley
sears
##kumar
flipping
por
dracula
gallons
orphanage
##iman
mckenzie
##gible
boxers
daly
##balls
##ان
208
##ific
##rative
##iq
exploited
slated
##uity
circling
hillary
pinched
provost
campaigning
lim
jong
mohan
successors
usaf
##tem
##ught
##ending
acquitted
203
hydroelectric
cypriot
torpedoes
rushes
chrome
fiat
pets
##mbe
silas
dye
settler
##itation
info
heats
##writing
176
canonical
maltese
fins
mushroom
aspen
##kur
##loading
vickers
gaston
hillside
statutes
gail
sabine
##rgo
169
pneumonia
fetch
##sonic
faintly
parallels
##oop
mclaren
spouse
compton
interdisciplinary
miner
##eni
181
clamped
##chal
##llah
versa
##mler
scarborough
labrador
##lity
##osing
rutgers
hurdles
como
166
burt
divers
##100
wichita
cade
coincided
##erson
mla
##pper
vineyard
##ili
##brush
mentioning
jase
hearted
kits
doe
##acle
pomerania
##ady
ronan
seizure
pavel
##zaki
domenico
##ulin
catering
penelope
emilio
ministerial
atkinson
##bolic
clarkson
chargers
colby
grill
peeked
arises
summon
##aged
fools
##grapher
faculties
qaeda
##vial
refurbished
##hwa
geelong
disasters
nudged
bs
shareholder
lori
algae
reinstated
rot
##ades
##nous
stainless
183
inclusive
##itude
diocesan
til
##icz
denomination
##xa
benton
floral
registers
##ider
##erman
##kell
brunei
guangzhou
hitter
##uled
##eve
blanc
nh
contamination
##eres
##rner
palermo
broadcasters
vols
brewer
tightening
ky
mixtape
hormone
##tok
stokes
##color
##dly
##ssi
pg
##ometer
##lington
sanitation
##tility
intercontinental
apps
##adt
¹⁄₂
economies
favourable
unison
croix
gertrude
dangling
##logists
upgrades
dice
middleweight
practitioner
##ight
206
henrik
orion
angered
lac
python
blurted
##rri
intends
angled
##phs
husky
attain
peerage
precinct
textiles
cheltenham
shuffled
dai
confess
tasting
bhutan
##riation
tyrone
segregation
ruiz
##rish
smirked
blackwell
confidential
browning
amounted
##put
vase
scarce
raided
staple
guyana
unemployed
glider
shay
##tow
carmine
troll
intervene
squash
##uce
cylindrical
len
roadway
researched
##rium
##jana
meta
lao
declares
##rring
##tadt
##elin
##kova
willem
shrubs
napoleonic
realms
skater
qi
volkswagen
##ł
hara
archaeologist
##kind
wiley
##heimer
##24
organizers
cfl
crusaders
lama
usb
vent
enraged
thankful
occupants
maximilian
##gaard
possessing
textbooks
##oran
collaborator
quaker
##ulo
mono
silky
straits
isaiah
mustang
surged
potomac
descend
cl
kilograms
saturdays
##olin
bernstein
##ype
holstein
ponytail
##watch
belize
conversely
##ylus
charcoal
piedmont
negotiating
##jah
##mmy
pasadena
climbs
ramos
sunni
##holm
##tner
##tri
anand
deficiency
hertfordshire
stout
##avi
aperture
orioles
##irs
doncaster
bombed
coating
otis
##mat
##jit
##eto
arousal
sar
##proof
##act
##ories
dixie
pots
##bow
whereabouts
159
##fted
bullying
cottages
scripture
poe
##uration
sampled
##ators
##dp
derrick
rotor
jays
peacock
##rro
advisors
##coming
rodeo
scotch
##mot
##db
##fen
##vant
ensued
rodrigo
dictatorship
martyrs
twenties
##н
towed
incidence
marta
rainforest
sai
scaled
##cles
oceanic
qualifiers
symphonic
mcbride
dislike
generalized
aubrey
colonization
##iation
##lion
##ssing
disliked
lublin
salesman
##ulates
spherical
sweating
avalon
contention
punt
severity
alderman
atari
##dina
##grant
##rop
scarf
seville
vertices
annexation
fairfield
launches
palatinate
regretted
##rca
##iom
elk
nap
olsen
reddy
##leader
##iae
garment
transports
feng
gracie
viceroy
insides
##esis
breakup
grady
organizer
softer
grimaced
222
murals
galicia
arranging
vectors
##rsten
bas
##sb
##cens
sloan
##eka
ara
fender
bumped
kris
comrades
detector
persisted
##llan
adjustment
endowed
cinemas
##shot
##uman
epa
kindly
neglect
talon
mausoleum
runaway
hangul
lookout
##cic
chloride
##ald
quicker
accordion
neolithic
##qa
artemis
coefficient
lenny
tx
##xed
litter
segunda
chairperson
gemma
vow
nasal
antioch
transformers
##eded
judo
morrow
penis
posthumous
philips
bandits
husbands
denote
flaming
##any
##phones
langley
1760
walters
##uo
##kle
gubernatorial
fatty
samsung
outlaw
##nine
unpublished
poole
jakob
##ᵢ
##ₙ
crete
distorted
superiority
##dhi
intercept
crust
mig
claus
crashes
positioning
188
301
armistice
##estinal
elton
aj
camel
commemorated
malaria
woodward
calf
cigar
penetrate
##oso
willard
##rno
##uche
illustrate
convergence
##lma
##rva
journeys
realise
manfred
##sable
410
##vocation
hearings
fiance
##posed
educators
##cturing
modular
stockton
paterson
vlad
electors
selena
maureen
##tres
uber
##rce
swirled
##num
nanny
naturalist
parma
apostles
awoke
ethel
##bey
##inating
mccain
adorned
##ih
equestrian
germain
nj
confirming
##yoshi
shivering
##imeter
milestone
rumours
flinched
smacked
token
##bei
automobiles
##shore
impacted
##iable
nouns
nero
##leaf
trams
##lace
sud
reins
revolves
##oud
##gned
giro
honeymoon
##swell
##sms
##uil
libyan
prefers
##osition
211
accusation
diffusion
faye
liturgical
specials
humboldt
##ckle
rattled
##itzer
archaeologists
authorised
marshes
discretion
##ов
alarmed
archaic
inverse
##leton
explorers
##pine
drummond
tsunami
woodlands
##minate
##tland
booklet
owning
insert
##tore
receivers
##bt
stung
##eca
##nched
prevailing
travellers
eyeing
lila
graphs
##borne
178
julien
##won
morale
adaptive
therapist
erica
cw
libertarian
bowman
pitches
vita
##ional
crook
##ads
##entation
caledonia
mutiny
##sible
1840s
automation
##ß
flock
##pia
##imus
remarried
##22
joker
energies
##att
shropshire
hostages
madeleine
tentatively
conflicting
mateo
recipes
euros
mercenaries
nico
##ndon
albuquerque
mythical
bel
##child
cough
##lica
365
lillian
genetically
nuremberg
calder
209
bonn
outdoors
paste
suns
##cera
##selle
bethlehem
##par
nippon
barony
happier
ryu
makeshift
sheldon
blushed
castillo
barking
listener
taped
bethel
headlines
rum
disclosure
sighing
mace
gunther
manly
##plex
rt
interventions
physiological
##tooth
##gny
rib
recession
visibly
barge
connector
prefect
##rlin
patio
##cured
elevators
brandt
pena
173
ea
botswana
##jima
##rter
##oic
franciscan
##dl
alfredo
##olate
##iously
sherwood
warns
cod
promo
cheryl
sino
##ة
##escu
twitch
##zhi
brownish
thom
ortiz
##dron
##beat
carmel
reinforce
##bana
187
anastasia
vertex
contaminated
harmonic
##sol
fiancee
olds
angelica
loft
quiz
colliery
sevens
##cape
autism
##hil
walkway
##boats
ruben
abnormal
khmer
##bbe
zachary
morphology
##olar
sparrow
##35
queer
remastered
rods
mabel
notified
lyricist
symmetric
##xide
174
encore
passports
wildcats
##uni
baja
##pac
##ease
commodity
mounds
orchestras
##omo
damian
prelude
##vet
awhile
##aud
asserts
##iques
modelling
remedy
##dded
dani
xiao
##endra
audible
powerplant
1300
invalid
acquisitions
##hala
libby
plata
ventilation
denoted
minh
##morphism
430
differed
dion
kelley
mocking
sabbath
hygiene
runoff
tally
liberated
aux
interpreter
righteous
aba
reaper
millie
##cier
##yra
gaius
##iso
##ttering
claudio
##sic
benches
knighted
blackness
##ored
discount
fumble
oxidation
routed
##ς
perpendicular
spoiled
fracture
splits
##urt
pads
topology
##cats
axes
fortunate
offenders
protestants
esteem
221
broadband
convened
hound
prototypes
isil
facilitated
##sher
sahara
awaited
orb
prosecutors
186
520
##xing
relaxing
remnant
romney
sorted
slalom
stefano
ulrich
##active
exemption
folder
pauses
foliage
epithet
204
criticisms
##aca
hinduism
youths
##pala
pts
thicker
analogous
capitalist
overseeing
sinatra
ascended
beverage
##tl
##kon
curran
##west
bois
325
surveying
emperors
sax
unpopular
##kk
cartoonist
##mble
unto
##yuki
localities
##cko
##ln
darlington
slain
academie
lobbying
sediment
puzzles
##grass
manifest
alumnus
arbor
coincide
184
appalachian
mustafa
examiner
cabaret
traumatic
yves
bracelet
draining
heroin
magnum
baths
odessa
consonants
mitsubishi
##gua
kellan
##fr
joked
null
straps
##ław
ceded
interfaces
##pas
##zawa
blinding
viet
224
rothschild
museo
640
huddersfield
##vr
##storm
brackets
incorrectly
##vu
reg
fearful
manifold
##sun
stumbling
##rte
balkans
mei
wraps
##aba
injected
##lea
gu
syed
##hammer
takeoff
poppy
timor
purdue
weeping
southbound
cursing
diagonal
##neer
lamar
bryce
comte
weekdays
harrington
##uba
negatively
##see
grouping
##cken
##henko
affirmed
modernist
##lai
hodges
smelling
aristocratic
baptized
justification
oilers
##now
qin
snack
healer
##qing
gardener
layla
battled
formulated
stephenson
gravitational
##gill
##jun
1768
granny
coordinating
suites
##cd
##ioned
monarchs
##cote
##hips
sep
apr
barrister
deposition
fia
mina
policemen
##pressed
churchyard
covert
crumpled
abandoning
tr
transmit
barr
readiness
spire
##cology
##enia
##erry
610
unlock
vida
bowled
slots
##nat
##islav
spaced
trusting
rig
##ink
##70
mv
207
casualty
##wei
classmates
##odes
##rar
##rked
amherst
furnished
foundry
mead
##lein
flu
wesleyan
##kled
monterey
webber
##vos
wil
##mith
##на
bartholomew
justices
##cke
amenities
191
mediated
trenches
ml
mainz
##thus
1800s
##cula
##inski
213
spheres
superseded
marianne
sweaty
ensign
historia
##br
spruce
##post
##ask
forks
yukon
pamphlet
ames
##uter
karma
##yya
bryn
negotiation
sighs
##mbre
##ntial
taft
##mill
luce
prevailed
##amine
1773
envoy
testify
investing
sculpted
instructors
provence
kali
cullen
horseback
##while
goodwin
##jos
gaa
norte
##ldon
modify
wavelength
abd
214
skinned
sprinter
forecast
scheduling
marries
squared
tentative
##chman
boer
##isch
bolts
swap
fisherman
assyrian
guthrie
martins
murdoch
194
tanya
lacy
med
##45
syn
decks
fashionable
millionaire
##ust
##ml
##ision
heaved
tammy
consulate
attendees
routinely
197
saxophonist
malaya
##lord
scowl
tau
##ishly
193
sighted
##rks
303
911
##holes
##hong
ching
##wife
conserved
jurassic
stacey
unix
zion
chunk
rigorous
blaine
198
peabody
slayer
brewers
nz
##jer
det
##glia
postwar
int
penetration
sylvester
vertically
airlift
heiress
##uin
390
macon
##rim
##fighter
##gonal
##orescence
##wari
marius
belongings
leicestershire
196
blanco
inverted
preseason
sobbing
##due
##elt
##dled
collingwood
shortest
##mount
##osi
feminism
##lat
sherlock
cabinets
northbound
##mme
researching
##akes
guillaume
manipulated
vapor
neighbour
frey
f1
callie
barnett
audi
assessing
slung
panchayat
##etto
distributing
violating
wolverhampton
##hetic
swami
histoire
##urus
liable
pounder
groin
hussain
larsen
popping
##atter
vie
curt
##station
mute
relocate
authorization
richter
##sef
immortality
tna
bombings
##press
deteriorated
##acious
colchester
cs
pmid
ao
verified
apostle
swayed
oxfordshire
retention
nottinghamshire
invitational
shrimp
##icient
longitudinal
tanker
##mur
acronym
broker
koppen
suppliers
##gil
4000
clipped
##anne
landslide
helene
populous
landowners
auspices
quantitative
##xes
ferries
nicky
##llus
roche
carver
downed
unavailable
##pathy
hiroshima
##hue
garfield
valle
keyboardist
##eit
congestion
subsidiaries
##bate
serb
modernization
deepened
ville
averages
##lore
tonga
##itch
co₂
squads
##hea
serum
retailer
verona
35th
cis
##phobic
magna
technicians
##vati
##sport
levin
##dation
amtrak
chow
sienna
##eyer
entrepreneurship
##otic
learnt
tao
##udy
worcestershire
formulation
hesitant
bali
##kari
barren
murmur
pl
putnam
syntax
aces
medicines
bandwidth
##sier
grins
chili
guido
##sei
implying
gareth
lissa
pertaining
admissions
geo
thorpe
proliferation
sato
analyzing
parting
##gor
awakened
##isman
huddled
secrecy
##kling
gentry
540
##ego
coasts
##utz
##chule
landowner
mutually
prevalence
programmer
disrupted
seaside
gee
vamp
georgie
##nesian
##iol
schedules
sindh
##market
hm
bey
beaux
unidentified
216
collaborating
gems
jesuits
oro
accumulation
shaping
mbe
anal
##xin
231
newscast
##egan
janata
dewey
parkinson
179
ankara
biennial
dd
950
##chet
thriving
terminate
advocating
donkey
marley
phyllis
leiden
##user
grassland
glittering
iucn
217
memorandum
armenians
##ddle
popularized
rhodesia
60s
##illon
sans
bikini
header
##xx
##finger
##ulator
sharif
spines
biotechnology
strolled
yates
##wire
fremantle
milo
##mour
abducted
removes
##atin
##chrome
##ester
hume
##rates
armand
grams
believers
elector
rte
apron
bis
scraped
##yria
endorsement
initials
##llation
eps
buzzing
emigration
nearer
##tom
indicators
##ulu
neutron
protectorate
##uze
directional
loire
1830s
proponents
guggenheim
rabbits
305
hectare
inputs
hutton
##raz
verify
##ako
boilers
longitude
##lev
skeletal
yer
emilia
citrus
##gau
paragraph
eduard
cadillac
attire
categorized
kenyan
charley
##bourg
monmouth
##lles
nutrients
davey
mesh
incentive
practised
ecosystems
kemp
subdued
overheard
##rya
##nius
apprenticeship
ursula
##fight
lodged
silesian
unconstitutional
patel
inspected
coyote
unbeaten
##hak
34th
disruption
convict
parcel
##cl
##nham
collier
implicated
mallory
##iac
##lab
susannah
winkler
##rber
shia
phelps
sediments
graphical
robotic
##sner
adulthood
mart
smoked
##isto
clarified
##aran
divides
oppression
pausing
burying
##mt
federico
mathias
##tana
kite
hunched
##acies
189
##atz
greedy
paradox
yokohama
dowager
trunks
ventured
##gement
gupta
vilnius
olaf
##thest
crimean
hopper
##ej
progressively
arturo
mouthed
arrondissement
##fusion
simulcast
oceania
##orum
##stra
##rred
busiest
navigator
##vine
##hini
##bies
fife
rowe
rowland
insurgents
shafts
lawsuits
conor
inward
culturally
garlic
265
##eering
eclectic
##hui
##kee
##nl
furrowed
vargas
meteorological
rendezvous
##aus
culinary
commencement
##dition
quota
##notes
mule
##iology
##mology
sums
wentworth
##isk
##zione
mainline
subgroup
##illy
plaintiff
verdi
bulb
differentiation
engagements
multinational
supplemented
caller
regis
##naire
##sler
##arts
##imated
propagation
kilometer
viaduct
vineyards
##uate
beckett
optimization
golfer
songwriters
seminal
semitic
evolving
##wley
trivial
distributions
scandinavia
##ject
wrestled
##dio
napkin
##ods
adjunct
rhyme
##ricted
##eti
32nd
##ntly
oils
medicinal
steer
wilkes
219
255
concessions
blinded
landon
yahoo
##lane
hendrix
commemorating
dex
specify
chicks
##ggio
intercity
1400
morley
##torm
highlighting
##oting
pang
oblique
stalled
##liner
flirting
newborn
1769
bishopric
shaved
232
currie
##ush
dharma
spartan
##ooped
favorites
novella
sirens
abusive
espana
##lage
semiconductor
sheen
##rdo
##yen
##zak
nrl
renew
##pose
##tur
adjutant
marches
##enity
grunt
##gat
lordship
expenditure
infringement
lbs
refrain
av
mimi
mistakenly
postmaster
1771
##bara
ras
motorsports
tito
199
##zza
##kaya
prescott
1a
##raphic
##zam
bids
styling
reeve
sneaking
exploding
akbar
migrant
syllables
##ogical
destroys
replaces
applause
##phine
pest
##fide
218
articulated
bertie
##thing
##cars
##ptic
crowley
cummings
tehsil
hormones
titanic
##ibe
stadion
jaenelle
auguste
ciudad
##chu
mysore
##sio
lucan
philipp
##aly
debating
henley
interiors
##rano
##tious
homecoming
beyonce
henrietta
prepares
weeds
##oman
ely
plucked
##pire
##dable
luxurious
##aq
artifact
password
pasture
juno
maddy
minsk
##dder
##ologies
##rone
assessments
martian
royalist
1765
##mani
##rge
nino
223
parry
relativity
##eli
##uting
##cao
congregational
traverse
##agawa
strikeouts
nickelodeon
obituary
transylvania
binds
polk
trolley
##yed
##lard
breeders
##under
dryly
hokkaido
1762
bonaparte
connectivity
neared
prostitutes
stamped
anaheim
gutierrez
sinai
##zzling
bram
fresno
madhya
##86
proton
##lena
##llum
##phon
reelected
wanda
##anus
##lb
##yler
sermons
tomato
stimulation
avenues
##eux
scarlett
fern
pentagon
chesapeake
ir
calmed
distortion
fatalities
##olis
correctional
pricing
##astic
##gina
dammit
ying
collaborate
##chia
welterweight
33rd
pointer
substitution
bonded
umpire
multitude
paddle
##obe
federally
##insky
betray
ssr
##lett
##lean
##lves
##therapy
airbus
##tery
functioned
ud
bearer
biomedical
netflix
##hire
##nca
condom
ik
##nical
macy
##bet
flap
gma
experimented
lavender
##icles
##ulia
munro
##mian
##tial
##rle
60th
gigs
hottest
rotated
predictions
fuji
bu
##erence
##omi
barangay
##fulness
##sas
##rwood
##liness
cereal
roe
wight
decker
uttered
babu
xml
forcibly
##df
petra
sarcasm
peeled
##42
##xley
##ysis
##ffa
fibre
kiel
auditor
fig
harald
greenville
##berries
geographically
nell
quartz
##athic
cemeteries
##lr
crossings
nah
holloway
reptiles
chun
sichuan
snowy
660
corrections
##ivo
zheng
ambassadors
blacksmith
fielded
fluids
hardcover
turnover
medications
melvin
academies
##erton
ro
spaniards
colton
##founded
outsider
kelsey
245
edible
##ulf
dora
##sham
##tries
contracting
##tania
costello
nesting
##uron
connolly
duff
##nology
mma
##mata
fergus
gi
optics
woodstock
banning
##hee
##fle
differentiate
outfielder
refinery
226
312
gerhard
lair
drastically
##udi
landfall
##cheng
motorsport
odi
##achi
predominant
quay
##ental
edna
harshly
complementary
murdering
##aves
##90
ono
outstretched
lennox
munitions
galen
reconcile
470
scalp
bicycles
gillespie
rosenberg
guillermo
hostel
jarvis
kabul
volvo
opium
yd
##twined
abuses
decca
outpost
##cino
sensible
neutrality
##64
ponce
anchorage
atkins
turrets
libre
vodka
##yal
glide
jumper
ceilings
repertory
outs
stain
##bial
envy
##ucible
policing
hyun
lai
##ples
celeste
##bina
lucrative
intervened
kc
manually
##rned
staffed
bun
bastards
nairobi
priced
##auer
thatcher
##kia
tripped
comune
##ogan
##pled
brasil
incentives
emanuel
hereford
musica
##kim
benedictine
biennale
##lani
eureka
gardiner
rb
sha
##ael
##elled
##onate
efficacy
masonic
sanford
maize
leverage
##feit
capacities
santana
##aur
vanilla
##cter
##tour
benin
##oir
##rain
neptune
drafting
tallinn
##cable
humiliation
##boarding
schleswig
bernardo
liturgy
sweeney
pont
routledge
##tment
cosmos
hilt
universally
##eville
##gawa
##dry
allegheny
glaciers
##rly
aziz
##log
parasite
auf
##berto
##llin
##breaker
##issa
festivities
bows
govern
vp
333
sprawled
pilgrim
bwf
##rts
##ssel
alexei
greyhound
hoarse
##dler
##oration
seneca
##cule
##ulously
##pura
cinnamon
##gens
##rricular
houghton
engined
reigned
dictator
supervising
##oris
bogota
commentaries
unnatural
fingernails
tighten
##tm
canadiens
protesting
intentional
cheers
sparta
##ytic
##iere
##zine
widen
belgarath
controllers
dodd
iaaf
navarre
##ication
defect
squire
steiner
whisky
##mins
560
##gold
##uid
##lid
elastic
##aby
streaked
alliances
jailed
regal
##ined
##phy
czechoslovak
absently
##uld
bluegrass
guangdong
quran
hose
hari
##liest
##owa
skier
deploy
##lom
raft
bose
dialed
huff
##eira
haifa
simplest
ib
sultanate
##titled
franks
whitman
##ggs
organising
ui
banished
napier
teller
##otti
roc
battleships
evidenced
fugitive
sadie
robotics
##roud
equatorial
geologist
##iza
yielding
##bron
##sr
internationale
mecca
##diment
sbs
skyline
toad
uploaded
undrafted
lal
leafs
bayern
##dai
lakshmi
shortlisted
##stick
##wicz
donate
af
christi
##acio
disclosed
1761
assemble
northamptonshire
tal
##asi
bernardino
premature
42nd
coefficients
galactic
reproduce
buzzed
sensations
zionist
monsieur
##eme
archery
strangled
musically
antiquities
bei
trailers
seahawks
cured
preferring
tasmanian
lange
sul
##mail
##working
colder
overland
lucivar
massey
gatherings
haitian
##smith
##cco
##enbach
1766
npr
##icular
boroughs
creole
forums
techno
1755
dent
abdominal
streetcar
##eson
##stream
procurement
gemini
##tya
acheron
christoph
feeder
fronts
vendor
bernhard
jammu
tumors
slang
##uber
goaltender
curving
manson
vuelta
mer
pouch
allowance
theodor
vascular
##factory
bala
metabolic
coughing
nanjing
##cea
pembroke
##bard
36th
ff
hourly
##ahu
elmer
handel
##ivate
awarding
thrusting
dl
##hesion
##46
caressed
steak
##rangle
biologist
orphans
baroness
oyster
stepfather
##dridge
mirage
speeding
##31
barons
1764
227
preached
repealed
##tral
boogie
administer
johanna
##imate
suspiciously
1767
sobs
##dington
hayward
garry
##folding
##nesia
maxi
##oof
##ppe
ellison
galileo
##stand
crimea
amour
matrices
natalia
baking
palestinians
##grove
conveyed
ensembles
gardening
##manship
##rup
##stituting
1640
topography
jing
shifters
dormitory
##carriage
##lston
ist
##stadt
dolores
jewellery
sarawak
##wai
##zier
fences
christy
confinement
tumbling
fir
##bria
##plication
##nged
##sam
##belt
marjorie
pba
##eem
##made
schooner
agitated
barley
anthropologist
##pro
restrict
novi
regulating
##nent
padres
##rani
##hesive
loyola
tabitha
milky
olson
proprietor
crambidae
guarantees
intercollegiate
ljubljana
hilda
##sko
hooded
##lts
sardinia
##lidae
##vation
witchcraft
##gp
jammed
laude
##than
bracket
yunnan
##erus
maharaja
linnaeus
264
commissioning
milano
peacefully
##logies
akira
rani
regulator
##36
grasses
##rance
luzon
crows
compiler
gretchen
seaman
edouard
tab
buccaneers
ellington
hamlets
whig
socialists
##anto
easton
mythological
##kr
##vary
rhineland
semantic
dune
inventions
##iter
replication
branched
##pired
jul
prosecuted
penetrated
##avian
middlesbrough
madam
predatory
##vili
reluctance
##vir
hailey
crore
silvery
1759
swimmers
transmissions
hawthorn
informing
##eral
toilets
caracas
crouch
kb
##sett
cartel
hadley
##aling
alexia
yvonne
##biology
eton
blizzard
industrialist
maximus
##gm
##orus
groves
maud
clade
##bella
rosen
nomadic
fulham
montane
beverages
galaxies
swarm
##rot
##folia
##llis
buckinghamshire
fen
bearings
bahadur
##rom
gilles
phased
faber
benoit
vip
##ount
##wd
booking
fractured
tailored
anya
spices
westwood
cairns
auditions
inflammation
steamed
##rocity
##acion
##urne
skyla
thereof
watford
torment
archdeacon
lulu
demeanor
fucked
serge
##sor
mckenna
minas
entertainer
##icide
caress
originate
residue
##sty
1740
##ilised
##org
beech
##wana
subsidies
##ghton
emptied
gladstone
ru
firefighters
voodoo
##rcle
het
nightingale
tamara
edmond
silhouette
285
compatibility
withdrawing
hampson
##mona
##mber
bookstore
##jiang
southernmost
tilting
##vance
rf
briefcase
hinted
projections
totaling
##rogate
analogue
indicted
periodical
fullback
##dman
##tenberg
##ffs
##ishment
1745
penang
vigorous
##ddling
##kor
##lium
octave
##ove
##enstein
##inen
##ones
siberian
##uti
cbn
repeal
##vington
khalid
tanaka
unicorn
otago
lobe
##rella
##ishing
croydon
filtered
graeme
tripoli
##ossa
##chers
sufi
##tung
inferno
lsu
##phi
swelled
£2
cale
periodicals
styx
hike
informally
coop
lund
##tidae
ala
hen
qui
transformations
disposed
sheath
chickens
##cade
fitzroy
sas
silesia
odisha
1650
sabrina
pe
spokane
ratios
athena
massage
shen
##drum
##riz
##hul
corona
niall
##pha
##bino
fines
cite
bangor
ballard
bathurst
##resh
huron
mustered
alzheimer
garments
kinase
tyre
warship
##cp
pulmonary
braun
kamal
cyclists
constructions
grenades
ndp
traveller
excuses
stomped
signalling
futsal
mosques
##wine
wta
##23
##vah
##lter
hoc
##riding
##´s
deco
sim
interacting
rejecting
moniker
waterways
##ieri
##oku
mayors
gdansk
outnumbered
##ended
##hampton
fairs
totals
dominating
262
notions
stairway
compiling
pursed
commodities
yeast
##jong
carthage
residual
contraction
laird
sapphire
##marine
##ivated
amalgamation
dissolve
lyle
packaged
altitudes
suez
canons
graded
lurched
narrowing
wed
enrico
##ovsky
rower
scarred
bree
iberian
bargaining
proposing
trainers
voyages
vans
fishes
##aea
##ivist
##verance
encryption
sabre
cleopatra
hepburn
supremacy
mecklenburg
##brate
burrows
hazards
outgoing
organizes
##ctions
##usions
boo
234
chevalier
dunedin
##34
ineligible
pensions
##38
##omic
manufactures
emails
bismarck
238
weakening
blackish
ding
mcgee
quo
##rling
northernmost
xx
manpower
sampson
##ange
##horpe
##inations
##roving
torre
##eptive
##moral
38th
asshole
meritorious
outfits
biographies
astros
##tale
302
737
filly
raoul
nw
tokugawa
linden
clubhouse
##apa
tracts
romano
##pio
putin
tags
##note
chained
dickson
gunshot
moe
gunn
rashid
##tails
##bas
##nea
contrasted
##ply
##udes
plum
pharaoh
##pile
aw
ingrid
sandwiches
subdivisions
1100
mariana
nokia
kamen
hz
delaney
veto
##words
possessive
outlines
##roup
siemens
stairwell
rc
gallantry
messiah
palais
yells
233
zeppelin
##dm
bolivar
##cede
mckinley
##mora
##yt
geologic
unitary
avatar
hamas
maynard
rees
bog
##rut
liv
chico
pixel
##erate
becca
dmitry
yeshiva
narratives
##lva
##ulton
mercenary
sharpe
tempered
stealth
keynes
##lini
untouched
##rrie
havoc
lithium
##fighting
graf
southward
wolverine
balloons
implements
ngos
transitions
##icum
ambushed
concacaf
dormant
economists
##dim
costing
csi
rana
universite
boulders
verity
##llon
collin
mellon
cypress
fluorescent
spence
##ulla
crewe
pak
##م
gibbons
paw
##dro
##quel
freeing
##test
shack
fries
palatine
##51
##hiko
accompaniment
cruising
##aver
erwin
sorting
synthesizers
dyke
sg
strides
enslaved
wetland
##ghan
gunpowder
grassy
maroon
reactors
objection
##oms
carlson
gearbox
macintosh
radios
shelton
##sho
clergyman
prakash
254
mongols
trophies
oricon
228
stimuli
twenty20
cantonese
cortes
mirrored
##saurus
bhp
cristina
##lating
nuevo
##wny
##ind
banging
lausanne
rumbled
paramilitary
reflex
ax
amplitude
migratory
##gall
##ups
midi
barnard
lastly
sherry
##hp
##nall
keystone
##kra
carleton
##53
coloring
foe
socket
otter
##rgos
mats
##tose
consultants
bafta
bison
topping
##km
490
abandonment
transplant
atoll
mort
reproduced
tae
##turn
unlawful
billionaire
poised
lansing
##chang
dinamo
nfc
domesday
##mina
blitz
timed
##athing
##kley
ascending
##izations
signaled
tis
chinatown
savanna
jameson
##aint
catalina
##pet
##hers
cochrane
cy
chatting
##kus
alerted
computation
mused
noelle
mohawk
campo
octagonal
##sant
##hend
241
aspiring
##mart
iona
swindon
rhone
##eley
reputed
pitchfork
agitation
francais
gillian
##ilo
pontifical
resisting
bitterness
rockies
##edd
##ucher
1756
exiting
galloway
##nging
risked
##heart
246
commemoration
##rka
##rsa
shrieked
##weiler
guineas
gladys
owls
goldsmith
nightly
##unced
lia
##33
ignited
betsy
##aring
##thorpe
follower
##rave
coded
kiran
knit
zoology
tbilisi
##28
##bered
repository
govt
deciduous
dino
growling
##bba
enhancement
chanting
pussy
biochemistry
##eric
kettle
repression
toxicity
nrhp
##arth
##kko
##bush
ernesto
outspoken
242
mca
parchment
sms
kristen
##aton
bisexual
raked
navajo
a2
conditioned
showcased
##hma
spacious
##esa
usl
appliances
junta
brest
layne
conglomerate
enchanted
chao
loosened
picasso
circulating
inspect
montevideo
##centric
##kti
piazza
spurred
##aith
bari
freedoms
poultry
stamford
lieu
##ect
indigo
sarcastic
bahia
stump
dvds
frankenstein
lille
approx
scriptures
pollen
##script
nmi
overseen
##ivism
proponent
newmarket
inherit
milling
##erland
centralized
##rou
distributors
credentials
drawers
abbreviation
##lco
##xon
downing
##oes
erase
franchises
##ever
##bery
##khar
##tet
daryl
sabah
##stle
##wide
genie
lesions
annette
##ogist
oboe
appendix
dripped
petitioned
maclean
mosquito
rpg
1648
reservoirs
##tham
summarized
##fp
medallion
##taff
##−
clawed
harlow
narrower
goddard
marcia
bodied
fremont
suarez
altering
tempest
mussolini
##isms
oversees
walkers
solitude
grimly
shrines
hk
ich
supervisors
hostess
dietrich
legitimacy
##yp
##rse
localized
systemic
##nikov
gettysburg
##js
##uaries
dialogues
251
housekeeper
sicilian
discouraged
##frey
beamed
kaladin
kidnap
##amo
##llet
1754
synonymous
instituto
insulin
reprised
##opsis
clashed
##ctric
interrupting
radcliffe
insisting
medici
1715
ejected
##47
starvation
##rini
shipment
rebellious
petersen
verification
##rified
cakes
##charged
1757
milford
shortages
spying
fidelity
##aker
emitted
harvested
seismic
##iform
cheung
kilda
theoretically
barbie
lynx
##rgy
##tius
goblin
mata
poisonous
##nburg
reactive
residues
obedience
##евич
conjecture
##rac
401
hating
kicker
##bha
emancipation
neoclassical
##hering
consoles
ebert
professorship
##tures
sustaining
obeyed
incurred
tornadoes
##eber
##zow
highlanders
helmets
##ctus
internship
terence
bony
executions
legislators
berries
peninsular
##aco
1689
amplifier
corvette
ribbons
pennant
##lander
##chfield
##forms
mariano
pyrenees
expenditures
##icides
chesterfield
mandir
39th
sergey
nestled
willed
goodnight
raaf
rumored
remy
appropriations
harcourt
riaa
##lence
limitation
guo
soaking
swamps
##tica
collapsing
tatiana
descriptive
brigham
psalm
##chment
maddox
##lization
patti
caliph
##aja
akron
injuring
serra
##ganj
basins
##sari
astonished
launcher
##church
wilkins
##sf
##fia
##ncia
underwood
startup
##ition
compilations
vibrations
embankment
jurist
##nity
juventus
groundwater
kern
palaces
helium
boca
cramped
marissa
soto
##worm
jae
princely
##ggy
bazaar
warmly
##voking
229
##lite
##grate
##nets
wien
freaked
ulysses
rebirth
##alia
##rent
jimenez
stilled
##nitz
trajectory
tha
woken
professions
##pts
##pta
hilly
shrink
##bolt
norwood
migrate
##pheus
625
evacuate
infancy
gotham
knowles
downloaded
sachs
parramatta
darryl
mor
##onale
shady
commence
confesses
kan
##meter
##placed
marlborough
roundabout
regents
frigates
io
##imating
gothenburg
revoked
carvings
clockwise
convertible
intruder
##sche
##ogo
vicky
##mony
dupont
footing
##gum
pd
##real
buckle
yun
penthouse
720
serviced
stakeholders
neumann
bb
##eers
comb
##gam
catchment
pinning
rallies
typing
##elles
freiburg
sweetie
giacomo
widowed
worshipped
midday
##vat
fishery
##trick
bournemouth
turk
243
hearth
ethanol
guadalajara
murmurs
sl
##uge
afforded
##hta
wah
##jn
coroner
translucent
252
memorials
puck
##race
315
candace
recounted
##27
##slin
##uve
filtering
##mac
howl
strata
heron
leveled
##ays
##oja
##т
##wheel
citations
exhibiting
##laya
##mics
##pods
turkic
##lberg
injunction
##ennial
##mit
antibodies
##44
organise
##rigues
cardiovascular
inverness
##zquez
dia
cocoa
##tman
##roid
feasible
algiers
##relli
rus
bloomberg
dso
westphalia
bro
tacoma
281
downloads
##ours
konrad
duran
##hdi
jett
compares
legislator
secession
##nable
##gues
##zuka
reacher
##gley
##ła
aleppo
##agi
tc
orchards
trapping
linguist
postage
calhoun
superiors
##mx
barefoot
leary
##cis
ignacio
alfa
kaplan
##rogen
bratislava
mori
##vot
haas
313
cartridges
radiated
salford
tunic
##ulsive
archeological
delilah
magistrates
auditioned
brewster
charters
blogs
cappella
dynasties
iroquois
##krishna
raceway
myra
weaken
judah
mcgregor
##horse
mic
refueling
37th
burnley
bosses
markus
premio
query
##gga
dunbar
##economic
lyndon
sealing
commendation
reappeared
##mun
addicted
ezio
slaughtered
shuffle
##eves
##thic
##uj
fortification
warrington
##otto
resurrected
fargo
mane
##utable
##lei
##space
foreword
ox
##aris
##vern
abrams
hua
##mento
sakura
##alo
uv
##skaya
midfield
##eses
sturdy
scrolls
macleod
##kyu
entropy
##lance
mitochondrial
cicero
excelled
thinner
convoys
perceive
##oslav
##urable
287
##tagram
##aman
guantanamo
##cloth
##tite
wavy
##jou
##linger
##tze
layton
portico
clerical
outlaws
##hism
burials
muir
##inn
creditors
hauling
rattle
##leg
calais
monde
archers
reclaimed
dwell
wexford
hellenic
falsely
remorse
##tek
furnishings
##uttered
gabon
neurological
novice
##igraphy
contemplated
pulpit
nightstand
saratoga
##istan
pulsing
taluk
##firmed
busted
marital
##rien
disagreements
wasps
##yes
hodge
mcdonnell
mimic
fran
pendant
dhabi
musa
##nington
congratulations
argent
darrell
concussion
thessaloniki
donaldson
thence
achilles
##eran
jurgen
prophets
goethe
eki
classmate
##cking
##inging
perished
qur
sourced
##crat
##typic
mustard
ravine
barre
horizontally
phylogenetic
boise
##dit
##runner
##tower
intercourse
##bbing
fay
ogden
amar
nik
unarmed
##inator
evaluating
kyrgyzstan
##lford
##oki
mccormick
meiji
notoriety
disrupt
instructional
##zoo
##lto
khorasan
agrarian
bengals
mixer
radiating
##sov
ingram
pitchers
nad
tariff
##cript
tata
##codes
##emi
##ungen
appellate
lehigh
##bled
##giri
brawl
duct
texans
##ciation
##ropolis
skipper
vomit
doctrines
stresses
253
davy
graders
whitehead
jozef
haryana
boon
cactus
##ales
##pid
dow
legions
##pit
1730
picturesque
##yse
periphery
rune
wr
##aha
celtics
sentencing
whoa
##erin
variance
425
moines
mathews
rave
m1
fronted
fx
blending
alleging
reared
##gl
237
##paper
grassroots
##free
##physical
##sław
accelerate
hacker
rooftop
##inia
lev
buys
cebu
##lce
specialising
##ulsion
warehouses
##ryl
paisley
tuscany
analogy
hash
huts
shards
exclude
nix
gaga
ito
vane
##drich
causeway
misconduct
limo
glands
jana
##kot
u2
##mple
##sons
branching
contrasts
scoop
longed
##virus
chattanooga
##75
cornerstone
##tized
##mind
##iaceae
precedence
frescoes
##uet
consult
modelled
peat
##thermal
caucasian
relaxation
temperance
##lbert
occupations
lambda
hybrids
moons
mp3
##oese
247
rolf
yerevan
ness
##ssler
befriended
mechanized
nominate
trough
boasted
cues
##hom
bends
##tangle
conductors
##lmer
eurasian
adriatic
##cie
anxiously
propellers
chichester
ev
2a
##holding
recounts
tori
loyalist
abduction
##hoot
##redo
nepali
##mite
ventral
##ango
##crats
steered
##wice
javelin
dipping
laborers
prentice
looming
titanium
##ː
badges
emir
tensor
##ntation
egyptians
denies
hawthorne
lombard
showers
wehrmacht
dietary
trojan
##reus
executing
horseshoe
lifeboat
##lak
elsa
infirmary
nearing
roberta
boyer
mutter
trillion
joanne
##fine
##oked
vortex
uruguayan
clasp
sirius
##block
accelerator
prohibit
sunken
byu
chronological
diplomats
ochreous
510
symmetrical
1644
maia
##tology
salts
##ия
hess
bared
issn
##vyn
cater
saturated
##cycle
##isse
sable
voyager
dyer
yusuf
##inge
fountains
wolff
##39
##nni
engraving
rollins
atheist
##ault
herr
chariot
martina
strung
##fell
##farlane
sahib
gazes
saetan
erased
ptolemy
##olic
flushing
lauderdale
analytic
##ices
530
navarro
beak
gorilla
herrera
broom
guadalupe
raiding
sykes
311
bsc
deliveries
1720
invasions
tajikistan
ecumenical
onstage
##rians
##brand
##sume
flanks
molten
##arns
waller
aimee
terminating
##icing
##oche
nehru
printers
outraged
##eving
empires
template
banners
za
##oise
vegetarian
##tell
guiana
opt
cavendish
lucknow
synthesized
##hani
##mada
finalized
##ctable
fictitious
mayoral
unreliable
##enham
peppers
rbis
##chio
##neo
inhibition
slashed
togo
orderly
embroidered
safari
salty
236
barron
benito
totaled
##dak
pubs
simulated
caden
devin
momma
welding
sesame
##ept
gottingen
hardness
630
shaman
temeraire
620
pediatric
##kit
ck
assertion
radicals
seafood
beaufort
lazarus
mani
warily
kurdistan
249
cantata
##kir
ares
##41
##clusive
nape
townland
flutter
boating
violate
draper
dumping
malmo
##hh
##romatic
firearm
alta
bono
##clave
##train
preschool
##essed
disconnected
installing
rescuing
secretaries
##castle
##drive
##ifice
##film
slug
waterway
mindanao
##buro
##ratic
halves
##ل
calming
liter
maternity
bragg
electrification
mcc
##dote
roxy
##body
munoz
kaye
whaling
239
mil
tingling
tolerant
##ago
volcanoes
##finder
deportivo
##llie
robson
neuroscience
deportation
masovian
scraping
converse
##bh
hacking
bulge
##oun
administratively
yao
580
mammoth
booster
claremont
hooper
nomenclature
pursuits
melinda
##sul
catfish
barclay
substrates
taxa
zee
originals
kimberly
packets
padma
##ality
borrowing
ostensibly
solvent
##bri
##genesis
##mist
lukas
shreveport
veracruz
##ь
##lou
##wives
cheney
tt
anatolia
hobbs
##zyn
cyclic
alistair
greenish
siena
dat
independents
##bation
conform
pieter
hyper
applicant
bradshaw
spores
telangana
vinci
inexpensive
nuclei
322
jang
nme
soho
spd
##ign
cradled
receptionist
##43
##rika
fascism
##ifer
experimenting
##ading
##iec
##region
345
jocelyn
maris
stair
nocturnal
constabulary
elgin
##kker
msc
##giving
##schen
##rase
doherty
doping
sarcastically
batter
##cano
##apple
##gai
##git
intrinsic
##nst
##stor
1753
cafes
gasps
lviv
##thed
fours
restart
astonishment
transmitting
flyer
shrugs
##sau
cones
dictated
mushrooms
medial
##kovsky
##elman
escorting
gaped
##26
godfather
##door
##sell
djs
recaptured
timetable
vila
1710
3a
aerodrome
mortals
scientology
##orne
mag
convection
insertion
intermittent
lego
##nated
kota
pereira
##lz
304
bwv
glamorgan
agatha
fey
##cend
fleetwood
mahogany
protruding
steamship
zeta
##arty
mcguire
##sphere
advising
##wala
hurriedly
meteor
gilded
inline
arroyo
##oge
excitedly
revered
##cure
earle
introductory
##break
##ilde
mutants
pulses
##haling
curses
lizards
stalk
correlated
##fixed
fallout
macquarie
##unas
bearded
denton
heaving
802
##ocation
winery
dortmund
##lkirk
everest
invariant
susie
##elling
lesley
telegram
sumner
bk
##ogen
##к
wilcox
colbert
duval
##iferous
##mbled
allotted
attends
imperative
##hita
replacements
hawker
##inda
insurgency
##zee
##eke
##yla
680
ives
transitioned
##pack
##powering
authoritative
baylor
flex
cringed
plaintiffs
woodrow
##skie
ape
aroma
unfolded
commotion
nt
preoccupied
theta
lasers
privatization
wand
domino
ek
clenching
nsa
strategically
showered
handkerchief
pere
storing
christophe
316
nakamura
romani
asiatic
magdalena
cruises
stripping
405
konstantin
soaring
##berman
colloquially
forerunner
havilland
incarcerated
parasites
##utus
disks
plank
##ining
corbin
homo
ornaments
##tlement
fastened
feasibility
idf
morphological
usable
##nish
##zuki
aqueduct
jaguars
keepers
##flies
aleksandr
faust
assigns
ewing
bacterium
hurled
hungarians
integers
wallis
321
yamaha
##isha
hushed
oblivion
aviator
evangelist
friars
##eller
monograph
##nary
airplanes
labourers
##nee
1661
hagen
rudder
fiesta
transcript
dorothea
ska
inhibitor
maccabi
retorted
raining
encompassed
clauses
1642
lineman
##gist
vamps
##ape
##dick
##rera
dealings
easing
seekers
##nut
##pment
helens
unmanned
##anu
##isson
basics
##amy
##ckman
adjustments
1688
horne
##zell
sui
##55
##mable
aggregator
##thal
##drick
##vira
counters
##01
##rting
mn
montenegrin
packard
##unciation
##♭
##kki
reclaim
scholastic
thugs
pulsed
##icia
syriac
quan
banda
kobe
blaming
buddies
dissent
##lusion
##usia
jaya
delle
lexie
##hesis
435
amiga
hermes
##pressing
##leen
chapels
gospels
jamal
##uating
compute
revolving
warp
##sso
##thes
armory
##eras
##gol
antrim
loki
##kow
##asian
##good
##zano
braid
handwriting
subdistrict
##iculate
concurrency
estimation
improper
juliana
##his
johnstone
staten
communicated
##oco
##alle
sausage
stormy
##stered
##tters
superfamily
##grade
##oped
##rza
bladder
austen
##ellant
mcgraw
##hay
aquino
lucifer
badger
boar
cher
christensen
greenberg
interruption
##kken
jem
244
mocked
bottoms
cambridgeshire
##lide
##bbly
ghent
synth
##buck
advisers
##bah
nominally
hapoel
qu
daggers
towels
vinnie
wcw
anglia
nothin
##dust
##lova
marquette
truss
##edge
##erine
reece
##lty
##chemist
##connected
272
308
41st
bash
raion
waterfalls
##ump
##main
labyrinth
queue
##istle
bharatiya
flexed
soundtracks
rooney
leftist
patrolling
wharton
alleviate
eastman
schuster
topographic
fairchild
1620
dona
lurking
parisian
oliveira
hahn
bangladeshi
##aster
vivo
##uming
##ential
kildare
harlan
##logue
##ogenic
##sities
##wat
tavi
##mide
##orra
grimm
successively
scooted
##bola
##dget
##rith
spartans
emery
azure
epilogue
##wark
##iny
##tracted
##overs
##oshi
bestseller
distressed
receipt
spitting
hermit
topological
##cot
drilled
subunit
francs
##layer
eel
##fk
##itas
octopus
footprint
petitions
ufo
##say
##foil
interfering
leaking
palo
##metry
thistle
##pic
narayan
mcpherson
##fast
gonzales
##ym
##enne
novgorod
solos
##zman
doin
##raph
##patient
##meyer
soluble
ashland
cuffs
carole
pendleton
whistling
vassal
##river
deviation
revisited
constituents
rallied
rotate
loomed
##eil
##nting
amateurs
augsburg
crowns
skeletons
##cona
bonnet
257
dummy
globalization
simeon
mandal
differentiated
##crow
##mare
milne
bundled
talmud
segregated
##feng
##uary
piracy
props
##rang
devlin
##torium
malicious
##laid
dependency
##ergy
##fers
##enna
258
pistons
rourke
jed
grammatical
maha
512
ghostly
jayne
##achal
##creen
##ilis
##lins
##rence
designate
##with
cambodian
throttle
twain
##ception
lobes
metz
nagoya
335
braking
##furt
385
roaming
##minster
amin
##37
##llary
hoffmann
idols
intimidating
1751
261
influenza
memo
onions
1748
bandage
##landa
##rage
clandestine
observes
swiped
tangle
##ener
##jected
##trum
##bill
##lta
hugs
congresses
josiah
##dek
managerial
inmate
rhymes
debuting
grimsby
ur
##laze
vigor
##tf
republished
bolshevik
refurbishment
antibiotics
martini
methane
newscasts
royale
levant
iain
visas
##ischen
paler
##around
manifestation
alf
rehab
##kat
bmg
kerman
res
fairbanks
jarrett
abstraction
saharan
##zek
1746
clearer
kincaid
sash
luciano
##ffey
crunch
helmut
##vara
##tute
creamy
leach
##mmon
1747
nes
wendell
##lese
contra
ts
ipa
mach
staples
disturbances
nueva
karin
pontiac
##uding
proxy
venerable
haunt
leto
##helm
wal
##pipe
canning
celine
cords
obesity
##enary
intrusion
planner
##phate
reasoned
sequencing
307
harrow
##chon
##dora
mcintyre
repay
darting
248
harrisburg
repulsed
##hur
##lding
belinda
hamburger
novo
compliant
runways
bingham
registrar
ic
cuthbert
livelihood
##corp
##elial
admiring
##dened
casablanca
##29
asha
##bek
##dice
coiled
tangible
##dez
casper
elsie
resin
rectory
##ivision
avail
sonar
##mori
boutique
##dier
guerre
bathed
upbringing
vaulted
sandals
blessings
##naut
##utnant
1680
306
foxes
pia
corrosion
hesitantly
confederates
crystalline
footprints
tirana
valentin
drones
45th
shipments
texted
inquisition
guernsey
unauthorized
resigning
760
ripple
schubert
stu
felony
##ardo
koreans
##havan
##ives
dun
implicit
tyres
##aldi
##lth
magnolia
##ehan
##puri
##poulos
fei
gr
##poo
##trust
jimmie
395
moans
##opus
britannia
armagh
##ggle
purposely
##vao
avoidance
cosmopolitan
geometridae
quartermaster
caf
415
gleam
##icate
jurisprudence
guerra
revisions
##bn
casimir
brew
##jm
1749
clapton
conde
278
simulations
torches
vincenzo
matteo
##rill
hidalgo
booming
westbound
tentacles
##sius
annabelle
sloping
##litz
dreamer
interceptor
##loh
consecration
copying
messaging
breaker
climates
hospitalized
1752
torino
afternoons
winfield
witnessing
##teacher
breakers
choirs
sawmill
coldly
##ege
sipping
haste
uninhabited
conical
bibliography
pamphlets
severn
edict
##oca
deux
illnesses
##pl
sis
##keepers
1690
acacia
reformer
##osed
##rys
shuffling
##iring
##shima
eastbound
ionic
rhea
flees
##oum
rocker
vomiting
groaning
champ
civilizations
paces
sloop
adoptive
##tish
skaters
##vres
aiding
mango
##joy
nikola
##ignon
pharmaceuticals
##mg
tuna
calvert
gustavo
stocked
yearbook
##urai
##mana
computed
subsp
riff
hanoi
kelvin
hamid
moors
pastures
jihad
nectar
##ctors
bayou
untitled
republics
##η
##ulio
##tou
crumbling
sb
##ی
frequented
h₂o
walden
widows
##iens
404
##ignment
chunks
288
recited
##dev
snarl
##arte
##gul
inquired
##held
bruise
clube
consultancy
homogeneous
hornets
multiplication
pasta
prick
savior
##grin
##kou
##phile
yoon
##gara
grimes
vanishing
bn
distillery
##quisite
##vity
coe
dockyard
massif
##jord
escorts
voss
##valent
byte
chopped
illusions
##koto
##vac
kv
annapolis
madden
##onus
alvaro
noctuidae
##cum
##scopic
avenge
erika
##trip
570
dew
nationalities
bran
manifested
thirsty
diversified
muscled
reborn
##standing
arson
##lessness
##dran
##logram
##boys
##kushima
##vious
willoughby
##phobia
286
alsace
dashboard
yuki
##chai
granville
myspace
publicized
tricked
##gang
##ater
reorganisation
indications
saxe
##lassified
consolidate
iec
padua
helplessly
ramps
renaming
regulars
pedestrians
convicts
inaccurate
lowers
mana
##pati
bjp
outta
berwick
flanking
invoked
marrow
sparsely
excerpts
clothed
rei
##ginal
wept
##straße
##vish
alexa
excel
##ptive
membranes
aquitaine
creeks
cutler
sheppard
implementations
ns
##dur
fragrance
budge
concordia
magnesium
marcelo
##antes
gladly
vibrating
##rral
##ggles
montrose
##omba
lew
seamus
1630
##ament
##uen
bjorn
##rrick
fielder
##lase
methyl
kimberley
##jic
##tonic
aeronautical
##promising
huffed
##cala
##sle
claudius
missy
pious
balthazar
ci
##lang
butte
combo
orson
##dication
1707
silenced
##fed
##rh
coco
netball
##oza
peg
durban
etudes
offender
roast
blackmail
curvature
##woods
309
illicit
suriname
##linson
1685
bubbling
gymnast
tucking
##mming
##ouin
maldives
##bala
gurney
##dda
##eased
##oides
backside
pinto
jars
racehorse
tending
##rdial
baronetcy
wiener
##rke
cupping
##thesis
bertha
pleistocene
swearing
##nob
##tically
prostate
amulet
educating
##mined
##iti
##tler
75th
jens
respondents
analytics
cavaliers
papacy
raju
##iente
##ulum
##tip
funnel
271
##lley
sociologist
##iam
2500
faulkner
louvre
menon
##dson
276
##ower
mannheim
peptide
referees
comedians
##anger
##laise
fabrics
renal
sleeps
##bour
##icle
breakout
kristin
roadside
animator
clover
unsafe
redesign
##urity
barnsley
portage
reset
narrows
268
commandos
expansive
speechless
tubular
##lux
essendon
eyelashes
smashwords
##yad
##bang
##claim
craved
sprinted
chet
somme
astor
wrocław
orton
266
bane
##erving
##uing
mischief
##amps
##sund
scaling
terre
##xious
impairment
offenses
undermine
moi
soy
contiguous
arcadia
seam
##tops
rebelled
##icative
##iot
590
elaborated
frs
uniformed
##dberg
259
powerless
priscilla
stimulated
980
qc
arboretum
trieste
##nified
glistening
##adia
locus
ollie
ike
lash
starboard
ee
headlined
hove
##vite
pollock
##yme
thrive
clustered
cas
roi
gleamed
olympiad
##lino
pressured
regimes
##hosis
##lick
ripley
##ophone
kickoff
gallon
rockwell
##arable
crusader
glue
revolutions
scrambling
1714
grover
##jure
englishman
aztec
263
contemplating
coven
ipad
preach
tufts
##esian
rotational
##phus
328
falkland
##brates
strewn
rejoin
environmentally
glint
banded
drenched
albanians
johor
rr
maestro
malley
nouveau
shaded
taxonomy
v6
bunk
airfields
##ritan
1741
encompass
remington
tran
##erative
amelie
mazda
friar
##zai
vis
##hae
argus
burnham
caressing
##imov
##mini
##rso
italianate
textual
wainwright
armada
bam
timer
##taken
##nh
fra
##crest
salazar
##ntino
allegro
gland
philanthropic
##chester
implication
##optera
esq
judas
wynn
##dara
inched
indexed
villiers
bandit
royalties
patterned
cupboard
interspersed
accessory
isla
kendrick
entourage
stitches
##esthesia
headwaters
##ior
interlude
distraught
draught
1727
##basket
transient
triad
subgenus
adapting
shortstop
##umatic
dimly
mcleod
reprint
nellie
pretoria
windmill
##cek
singled
##mps
273
reunite
##orous
747
bankers
outlying
##omp
##ports
##tream
apologies
cosmetics
patsy
##deh
##ocks
##yson
nantes
##nad
lucha
mmm
323
##cius
##gli
cmll
nestor
juarez
##rook
sprayed
twitching
irina
embodied
juveniles
enveloped
miscellaneous
cancers
dq
gulped
luisa
crested
swat
donegal
ref
##anov
##acker
mercantile
##lika
doorbell
ua
vicki
##alla
##som
bilbao
psychologists
stryker
sw
horsemen
turkmenistan
wits
##national
anson
mathew
##umb
rihanna
##agne
##nessy
##iani
##osphere
hines
kenton
saskatoon
tasha
truncated
##champ
##itan
mildred
fredrik
inhibitors
##athi
spectroscopy
##hab
##kong
panda
##oia
##nail
##vc
conqueror
kgb
leukemia
##dity
arrivals
pisa
phosphorus
shielded
##riated
mammal
unitarian
chopin
sanitary
##mission
drugged
##tort
tipping
impoverished
westchester
##caster
267
epoch
##gman
##khov
aromatic
centrally
cerro
##tively
##vio
billions
modulation
sedimentary
283
facilitating
goldstein
##eak
##kt
ld
maitland
penultimate
pollard
##dance
fleets
vertebrae
##nig
alcoholism
als
recital
##bham
##ference
##omics
m2
##bm
trois
##tropical
##в
commemorates
##meric
marge
##raction
1643
670
cosmetic
ravaged
##ige
catastrophe
eng
##shida
albrecht
arterial
bellamy
decor
##rde
bulbs
synchronized
vito
easiest
shetland
shielding
wnba
##glers
##ssar
##riam
brianna
cumbria
##aceous
##rard
cores
thayer
##nsk
brood
hilltop
carts
keynote
larkin
logos
##cta
##ا
##mund
##quay
lilith
tinted
277
wrestle
mobilization
##uses
sequential
siam
bloomfield
takahashi
274
##ieving
presenters
ringo
blazed
##oven
##ignant
haydn
newt
therese
##peed
gershwin
rabbis
sudanese
001
restarted
##sack
##fus
slices
wb
##shah
enroll
hypothetical
hysterical
1743
fabio
indefinite
##hg
exchanging
525
unsuitable
##sboro
1603
bret
cobalt
homemade
##hunter
mx
operatives
##dhar
terraces
latch
pens
whorls
##ctuated
##eaux
ligament
succumbed
##gly
regulators
spawn
##brick
##stead
filmfare
rochelle
##nzo
1725
circumstance
saber
supplements
##nsky
##tson
crowe
wellesley
carrot
##9th
##movable
primate
drury
##mad
##rao
callahan
kyiv
##yeh
announcements
anthologies
barrio
nebula
##islaus
##shaft
##tyn
bodyguards
2021
assassinate
barns
emmett
scully
##mah
##yd
##eland
##tino
##itarian
demoted
gorman
lashed
prized
adventist
writ
##gui
alla
invertebrates
##ausen
1641
amman
1742
align
healy
redistribution
##gf
##rize
insulation
##drop
hezbollah
vitro
ferns
yanking
269
php
uppsala
cheerleading
confines
##ross
49th
docked
roam
stipulated
##bry
prompt
##ezer
blindly
shuddering
frail
katharine
scramble
sponge
helix
zaragoza
279
##52
43rd
posse
cowan
wwii
hammered
##gpur
encircled
irs
##ivation
artefacts
oneself
smallpox
##belle
##osaurus
shandong
breached
upland
rankin
tolerated
docking
evicted
##col
unmarked
##lving
gnome
lettering
litres
musique
##oint
##jal
blackened
##anna
mccall
racers
tingle
##ocene
##orestation
introductions
radically
292
##hiff
##باد
1610
1739
munchen
plead
##nka
condo
scissors
##sight
##tens
apprehension
##cey
##yin
watering
formulas
##llas
aggravated
bae
commencing
##building
enfield
prohibits
marne
vedic
euclidean
beforehand
blasts
dumont
##arney
##nem
740
conversions
hierarchical
rios
simulator
##dya
##lellan
hedges
oleg
shadowed
darby
maximize
1744
gregorian
##nded
##routed
unspecified
##hog
emory
factual
##smo
##tp
fooled
##rger
ortega
wellness
marlon
##oton
##urance
casket
keating
ley
enclave
##ayan
char
influencing
##chenko
412
ammonia
[...]
